node {
  name: "input"
  op: "Placeholder"
  attr {
    key: "dtype"
    value {
      type: DT_FLOAT
    }
  }
}
node {
  name: "transpose/perm"
  op: "Const"
  attr {
    key: "dtype"
    value {
      type: DT_INT32
    }
  }
  attr {
    key: "value"
    value {
      tensor {
        dtype: DT_INT32
        tensor_shape {
          dim {
            size: 3
          }
        }
        tensor_content: "\001\000\000\000\000\000\000\000\002\000\000\000"
      }
    }
  }
}
node {
  name: "transpose"
  op: "Transpose"
  input: "input"
  input: "transpose/perm"
  attr {
    key: "T"
    value {
      type: DT_FLOAT
    }
  }
  attr {
    key: "Tperm"
    value {
      type: DT_INT32
    }
  }
}
node {
  name: "reshape/shape"
  op: "Const"
  attr {
    key: "dtype"
    value {
      type: DT_INT32
    }
  }
  attr {
    key: "value"
    value {
      tensor {
        dtype: DT_INT32
        tensor_shape {
          dim {
            size: 2
          }
        }
        tensor_content: "\377\377\377\377\t\000\000\000"
      }
    }
  }
}
node {
  name: "reshape"
  op: "Reshape"
  input: "transpose"
  input: "reshape/shape"
  attr {
    key: "T"
    value {
      type: DT_FLOAT
    }
  }
  attr {
    key: "Tshape"
    value {
      type: DT_INT32
    }
  }
}
node {
  name: "w_in"
  op: "Const"
  attr {
    key: "dtype"
    value {
      type: DT_FLOAT
    }
  }
  attr {
    key: "value"
    value {
      tensor {
        dtype: DT_FLOAT
        tensor_shape {
          dim {
            size: 9
          }
          dim {
            size: 32
          }
        }
        tensor_content: "\312\302.\274\201\264\322\274\251\204\211>\t\204Z=\035\253\262\275y/\257\275\342|:\276\310\235u=\t=\243>\036!\361=\236+#\277\356\021\010=\r\203\214\276xm\014?m\252\344\2756v\201=\t\342\236\275\351q\310\274gz\336\274\323\253\354\255\234u(\276bEh=\031\322\206\276\335\323\257\276b\207\250>\342\220m\275o[\331\275$\313\177?7`\001\274S6\325\275\340L\210>\333\337\037=\322\251\334=\t\221\330=\"8C<zZ\277=\212\245g=$\305Z\275h@\260=E\022\222<\224,\031\276fJ\221\272\025FN\275\017\340\213\275\321\362\032=\312\037\205\276\245c\020\275S\334\270\275\302\035\022=\n\t\372\274R\007s\275@\354\276+\370A\354<\217\316\236=Tv\310\275`b\332=\354\013\335<:{\036\275\037D\003\274\3566\265\275m\014\212\275Qx0=&$\022\275\303\233\210=\224\270\202;\323\r\000=R\350w\275\035\233\341\274\207)Q\275\225b\257<\361x\201>C\006\323;\200\301Z<\350\013m\275\303(w=\344n\014\275\241E\014<#\3148\275\342\207&=\340\337\271=\356O\260\274\373\244\241=\313X\370\274\256\223\321*\202\200`=\352\355\247\2748u\025=\220\0215\275Ri\226<\213\255\r=\352\217\355<\211\236\263\273\016\200\243\275M\307\241=\037\022\301\274?n=<}N\021\275\277\267\300\274\336\244\352>\342\262\002?@\262F>\026\262\254=Yal\275\030%o\276\331Qq\276\255\010\363>\216\001<\276g\226\252\274\336d(>w\374\242>PS\357=\366\210\036\277\203\010\251>\231-\206\275\203\274L\276V\202\212+\313\006\003\277\276\027(>\231\002\235\2763\004\023?\355w\205>h\"\266=4\221\037=\2537\300=\204\004-\276\206\265\221\275\320\377\270>\221\223\220>\211\337\177\276[N\341;4\375\325>\037\177V\276\330\366P>\311\366\274>\016\365Z\275G)J\276\336\225\\\275\250\263\243>\376\023\352\276fq\302=+}\253=\341L\206\275r:\225=\233\263\255\276\305\274\312>F\237\200\276\006\"\204\275\022\207w+C2\n>\237q\256>O\257\214\276\347a*?\347N\025\277\354\223\013\277\221\340\"\276U\304\036<+\374\035\276V~\313\275dE\001\276\332\0373<d\246\353\275\244\365y>7=/\276\262B\021\276\222l\'\275uF>>\272U\274\276\331\022?\275\002\336\377\276\346/\021>\273\342\245>\255f\231>\212\3165\276hV\240>H\222\266>\372\323\223;<\270\005>\377\233\217\274{|\234<\356x\025-\235*\336<m\222\251=\"\323\345\276\tG\350>uh??pEu\275\362n\324\275\330:\272>[\372}=y\0024=5\261\177\276\261H\256>\344IB\277\367\352\251\276\027\210\r?o\266j\277DW\004>o\314\237\276\201IG\277\340l[?\347\317\363=\033\0326?z\231T?\244O\304\274\345\025\\\277\202\217\302>\311.\331\275w\2023?z3\215\277\313\027\352<\360\223u?4\267\376\266X\350\336\276H\t\014>\373\177\307\277\201}I?\227\201$?5\211(\275\247\370\304>\243\243\321?3\267\205\274<QD\277}\371.\276\210.\000\276/~n\277\305\345\035\276\254\337\360\276\rW\016>\270\033\244>]\234k>\347\321k?C\347\345\275\251\025\323\275B*\214>\227\240`>\374B\360\276\314\245\210>\016\260\014\277\360Y\010\276\367C\257>w\277\344=,\266N?p\030\352\276\312\252\2550\022[\231;\370\252\262>\351\3041\277D\253\031\275@\n0\275\240\244\366<*\253\325>\262c\241\276?>\021?\364H\375>\'\3733\276\356*\013\277\004\016X\276\370\361\332\275\251%o\276u^J\277\234_w>\346\004\326\274\nj\245\277\235\033];\354V\"=\203\241\217=M\"\311>\032\330\253<O\371\032>\210^\260=E2#>}a\342<K\241q=9\367\360>Y?/>\003U\0330u\327\236>0\246\030>\375\022@\276\323\307\017?\017\236\221\276}\266\017\275\'\265\262\276\201U\024>\360\014\224?f\376\257<\023\223 <I\215$>"
      }
    }
  }
}
node {
  name: "b_in"
  op: "Const"
  attr {
    key: "dtype"
    value {
      type: DT_FLOAT
    }
  }
  attr {
    key: "value"
    value {
      tensor {
        dtype: DT_FLOAT
        tensor_shape {
          dim {
            size: 32
          }
        }
        tensor_content: "\330:\310?\233\230\034?Cb\226?\253^b?\225\250R?\327\206\017?I\352v?\022O\311?\313\227\016\276\362\217:?\255G\263?\2571W?\272\204-?\323\242\300\276.2\260>d\n\243?`W\347?\014\337\026?\317ls?V\36712J\372\272?\353\024\242?|\024\312?\033\224y?\205\255*\277\257\202\234=k<h?X\306\263\277\312\263\226<\013\315\256?;\371\210>\2642\203?"
      }
    }
  }
}
node {
  name: "MatMul"
  op: "MatMul"
  input: "reshape"
  input: "w_in"
  attr {
    key: "T"
    value {
      type: DT_FLOAT
    }
  }
  attr {
    key: "transpose_a"
    value {
      b: false
    }
  }
  attr {
    key: "transpose_b"
    value {
      b: false
    }
  }
}
node {
  name: "add"
  op: "Add"
  input: "MatMul"
  input: "b_in"
  attr {
    key: "T"
    value {
      type: DT_FLOAT
    }
  }
}
node {
  name: "relu"
  op: "Relu"
  input: "add"
  attr {
    key: "T"
    value {
      type: DT_FLOAT
    }
  }
}
node {
  name: "split/split_dim"
  op: "Const"
  attr {
    key: "dtype"
    value {
      type: DT_INT32
    }
  }
  attr {
    key: "value"
    value {
      tensor {
        dtype: DT_INT32
        tensor_shape {
        }
        int_val: 0
      }
    }
  }
}
node {
  name: "split"
  op: "Split"
  input: "split/split_dim"
  input: "relu"
  attr {
    key: "T"
    value {
      type: DT_FLOAT
    }
  }
  attr {
    key: "num_split"
    value {
      i: 128
    }
  }
}
node {
  name: "rnn/Shape"
  op: "Shape"
  input: "split"
  attr {
    key: "T"
    value {
      type: DT_FLOAT
    }
  }
  attr {
    key: "out_type"
    value {
      type: DT_INT32
    }
  }
}
node {
  name: "rnn/strided_slice/stack"
  op: "Const"
  attr {
    key: "dtype"
    value {
      type: DT_INT32
    }
  }
  attr {
    key: "value"
    value {
      tensor {
        dtype: DT_INT32
        tensor_shape {
          dim {
            size: 1
          }
        }
        int_val: 0
      }
    }
  }
}
node {
  name: "rnn/strided_slice/stack_1"
  op: "Const"
  attr {
    key: "dtype"
    value {
      type: DT_INT32
    }
  }
  attr {
    key: "value"
    value {
      tensor {
        dtype: DT_INT32
        tensor_shape {
          dim {
            size: 1
          }
        }
        int_val: 1
      }
    }
  }
}
node {
  name: "rnn/strided_slice/stack_2"
  op: "Const"
  attr {
    key: "dtype"
    value {
      type: DT_INT32
    }
  }
  attr {
    key: "value"
    value {
      tensor {
        dtype: DT_INT32
        tensor_shape {
          dim {
            size: 1
          }
        }
        int_val: 1
      }
    }
  }
}
node {
  name: "rnn/strided_slice"
  op: "StridedSlice"
  input: "rnn/Shape"
  input: "rnn/strided_slice/stack"
  input: "rnn/strided_slice/stack_1"
  input: "rnn/strided_slice/stack_2"
  attr {
    key: "Index"
    value {
      type: DT_INT32
    }
  }
  attr {
    key: "T"
    value {
      type: DT_INT32
    }
  }
  attr {
    key: "begin_mask"
    value {
      i: 0
    }
  }
  attr {
    key: "ellipsis_mask"
    value {
      i: 0
    }
  }
  attr {
    key: "end_mask"
    value {
      i: 0
    }
  }
  attr {
    key: "new_axis_mask"
    value {
      i: 0
    }
  }
  attr {
    key: "shrink_axis_mask"
    value {
      i: 1
    }
  }
}
node {
  name: "rnn/MultiRNNCellZeroState/BasicLSTMCellZeroState/stack/1"
  op: "Const"
  attr {
    key: "dtype"
    value {
      type: DT_INT32
    }
  }
  attr {
    key: "value"
    value {
      tensor {
        dtype: DT_INT32
        tensor_shape {
        }
        int_val: 32
      }
    }
  }
}
node {
  name: "rnn/MultiRNNCellZeroState/BasicLSTMCellZeroState/stack"
  op: "Pack"
  input: "rnn/strided_slice"
  input: "rnn/MultiRNNCellZeroState/BasicLSTMCellZeroState/stack/1"
  attr {
    key: "N"
    value {
      i: 2
    }
  }
  attr {
    key: "T"
    value {
      type: DT_INT32
    }
  }
  attr {
    key: "axis"
    value {
      i: 0
    }
  }
}
node {
  name: "rnn/MultiRNNCellZeroState/BasicLSTMCellZeroState/zeros/Const"
  op: "Const"
  attr {
    key: "dtype"
    value {
      type: DT_FLOAT
    }
  }
  attr {
    key: "value"
    value {
      tensor {
        dtype: DT_FLOAT
        tensor_shape {
        }
        float_val: 0.0
      }
    }
  }
}
node {
  name: "rnn/MultiRNNCellZeroState/BasicLSTMCellZeroState/zeros"
  op: "Fill"
  input: "rnn/MultiRNNCellZeroState/BasicLSTMCellZeroState/stack"
  input: "rnn/MultiRNNCellZeroState/BasicLSTMCellZeroState/zeros/Const"
  attr {
    key: "T"
    value {
      type: DT_FLOAT
    }
  }
}
node {
  name: "rnn/MultiRNNCellZeroState/BasicLSTMCellZeroState/stack_1/1"
  op: "Const"
  attr {
    key: "dtype"
    value {
      type: DT_INT32
    }
  }
  attr {
    key: "value"
    value {
      tensor {
        dtype: DT_INT32
        tensor_shape {
        }
        int_val: 32
      }
    }
  }
}
node {
  name: "rnn/MultiRNNCellZeroState/BasicLSTMCellZeroState/stack_1"
  op: "Pack"
  input: "rnn/strided_slice"
  input: "rnn/MultiRNNCellZeroState/BasicLSTMCellZeroState/stack_1/1"
  attr {
    key: "N"
    value {
      i: 2
    }
  }
  attr {
    key: "T"
    value {
      type: DT_INT32
    }
  }
  attr {
    key: "axis"
    value {
      i: 0
    }
  }
}
node {
  name: "rnn/MultiRNNCellZeroState/BasicLSTMCellZeroState/zeros_1/Const"
  op: "Const"
  attr {
    key: "dtype"
    value {
      type: DT_FLOAT
    }
  }
  attr {
    key: "value"
    value {
      tensor {
        dtype: DT_FLOAT
        tensor_shape {
        }
        float_val: 0.0
      }
    }
  }
}
node {
  name: "rnn/MultiRNNCellZeroState/BasicLSTMCellZeroState/zeros_1"
  op: "Fill"
  input: "rnn/MultiRNNCellZeroState/BasicLSTMCellZeroState/stack_1"
  input: "rnn/MultiRNNCellZeroState/BasicLSTMCellZeroState/zeros_1/Const"
  attr {
    key: "T"
    value {
      type: DT_FLOAT
    }
  }
}
node {
  name: "rnn/MultiRNNCellZeroState/BasicLSTMCellZeroState_1/stack/1"
  op: "Const"
  attr {
    key: "dtype"
    value {
      type: DT_INT32
    }
  }
  attr {
    key: "value"
    value {
      tensor {
        dtype: DT_INT32
        tensor_shape {
        }
        int_val: 32
      }
    }
  }
}
node {
  name: "rnn/MultiRNNCellZeroState/BasicLSTMCellZeroState_1/stack"
  op: "Pack"
  input: "rnn/strided_slice"
  input: "rnn/MultiRNNCellZeroState/BasicLSTMCellZeroState_1/stack/1"
  attr {
    key: "N"
    value {
      i: 2
    }
  }
  attr {
    key: "T"
    value {
      type: DT_INT32
    }
  }
  attr {
    key: "axis"
    value {
      i: 0
    }
  }
}
node {
  name: "rnn/MultiRNNCellZeroState/BasicLSTMCellZeroState_1/zeros/Const"
  op: "Const"
  attr {
    key: "dtype"
    value {
      type: DT_FLOAT
    }
  }
  attr {
    key: "value"
    value {
      tensor {
        dtype: DT_FLOAT
        tensor_shape {
        }
        float_val: 0.0
      }
    }
  }
}
node {
  name: "rnn/MultiRNNCellZeroState/BasicLSTMCellZeroState_1/zeros"
  op: "Fill"
  input: "rnn/MultiRNNCellZeroState/BasicLSTMCellZeroState_1/stack"
  input: "rnn/MultiRNNCellZeroState/BasicLSTMCellZeroState_1/zeros/Const"
  attr {
    key: "T"
    value {
      type: DT_FLOAT
    }
  }
}
node {
  name: "rnn/MultiRNNCellZeroState/BasicLSTMCellZeroState_1/stack_1/1"
  op: "Const"
  attr {
    key: "dtype"
    value {
      type: DT_INT32
    }
  }
  attr {
    key: "value"
    value {
      tensor {
        dtype: DT_INT32
        tensor_shape {
        }
        int_val: 32
      }
    }
  }
}
node {
  name: "rnn/MultiRNNCellZeroState/BasicLSTMCellZeroState_1/stack_1"
  op: "Pack"
  input: "rnn/strided_slice"
  input: "rnn/MultiRNNCellZeroState/BasicLSTMCellZeroState_1/stack_1/1"
  attr {
    key: "N"
    value {
      i: 2
    }
  }
  attr {
    key: "T"
    value {
      type: DT_INT32
    }
  }
  attr {
    key: "axis"
    value {
      i: 0
    }
  }
}
node {
  name: "rnn/MultiRNNCellZeroState/BasicLSTMCellZeroState_1/zeros_1/Const"
  op: "Const"
  attr {
    key: "dtype"
    value {
      type: DT_FLOAT
    }
  }
  attr {
    key: "value"
    value {
      tensor {
        dtype: DT_FLOAT
        tensor_shape {
        }
        float_val: 0.0
      }
    }
  }
}
node {
  name: "rnn/MultiRNNCellZeroState/BasicLSTMCellZeroState_1/zeros_1"
  op: "Fill"
  input: "rnn/MultiRNNCellZeroState/BasicLSTMCellZeroState_1/stack_1"
  input: "rnn/MultiRNNCellZeroState/BasicLSTMCellZeroState_1/zeros_1/Const"
  attr {
    key: "T"
    value {
      type: DT_FLOAT
    }
  }
}
node {
  name: "rnn/multi_rnn_cell/cell_0/basic_lstm_cell/weights"
  op: "Const"
  attr {
    key: "dtype"
    value {
      type: DT_FLOAT
    }
  }
  attr {
    key: "value"
    value {
      tensor {
        dtype: DT_FLOAT
        tensor_shape {
          dim {
            size: 64
          }
          dim {
            size: 128
          }
        }
        tensor_content: "\014\255\277\273\326\272P<e\2326;\341o\223\275\316\304\202\272c)\033\276\261\341n=\342\370\005\275\300\307\021=\261\234J=u\253\034;<\373\r<\341\334?=\002\340\270\274\363\000*<~(\350\273}\250=<]\017\211:\372Q\361\273\004.k<nD\256\274\010\033\213\274\'\243O;\3020\223\274\204\342\006\275YD\000\2755\333\217\274\000\036\026=\002\222\356\273\370<\372<\272.5={\026\346;\244\020\215\272c\037U\275\357\272\022>Ct`>*\016\232\274.$\262=\335\217\276<\247\342\311:\0075\262\276Eg\003>\350\260\232\274\340\006\354\274\363H\205\275r\316\276\273\350H\317\274\203\021\324<\256>\014>e.\007\275@\332T\275\350\264\213=\330`\036\276\337\206.\274a\344\313<K\031\001\274\350\221\027=\322\005T=x\373\037\274\353\366K>\005\367\322\275\270\010\352<\\\271\\\275\226\004\016=J\371\352\273\336\006J<\016&\014=[U\351=hC\235\273Z\304]=\315\273\305\273\200\367\363\274\205\242a=B\024\204=;W\035\275\354IN<7\250C\275/\377\303\274\033I\253<\313\341#\274nC\000=j\223\212\274\n \007\274i5/=\177\372;=\231\021\202\274N\033\341; \302\255\274\034\352\317\274gj\376\274\010\337\227\274\276}\202<\026\035i\275\372R\345=\217\3708\274\234!\277<y\033E\275y\r\233<\rt~\274\n\\\305=K\020B\275\300\203W=\227s\215=\230\031\"\275\306!\214=\3411\224=\331\315\266\275Jf\334<T\314\037=H\242\267\274\326>\305=\324H\024\275En\342<\304\226\241\275\034\252\023\274\351\326,=\013J\025>\021\024\234\274\314\317Z<\3634\233\274:y\025\275\\a \275\336\222u\274\241}5=\211\202u\274\235\017\230=\037\3209=K\274F\2736\332\300\272|\313D;+\333)<\3507b\276\252Y\237\272\305D?\275\354\232\236<B\000\372\273|\356\275<\264>\261\275:\252i\273M\272\214;%\344\315<\242\303\332\272\214\2124;\2309\215\2725\300Y\274\254\2678:-d\335\272\365\233\215;\337\342\300<\301S\261\273\205\225\2669\271\275\250\273\n\355\026\274\311s\337\273\034\215\361\273\032\nc<\373\021\336;\227\264\236\275\337\211\242<\234\235\300;l\033\226\273\325\310\333\2744\037\325<s:\260=\374p\250\273k\226\024<\0235\354=\267\276\321\274jR\214\275\302\324\021>L\017[<W\002P\274\234\323\">R\333\232\274\340\215\255\273\310\347\261;G_\201=\334Dc<\0363\372\273\262\270U=\342\0367=p\235\375:\325\235\237;\202\031\225\273\374\205Z<\022\302\351<\324\316\255;\001\356\226=7\344\034\271\2416V\275\263l\302=H\215\026<oQ\313\272\204za;\222c\032<\021\341\033=Mo\032\272Y\272X=\322;\234<\333\246\267\273\007>\225<DJ\006<\330\231\207\273\250\240\325;fD:;\303\355\2709\307\314\300;f\255\306\272\270\327\347\274G\354F\273\n\271\335\2729D\276<\006\300\037=\353Z\326\273\335\273\013:\321*\343\273\225\007\345\273\033\300\311\273\264\242\331\273B\341\025=\300/\277<\307\034w=\206\303s\273:\324\251;,=7\274\321<\212<G\313 \273.\210\352<\257\212\"\274\005\317Y<S~\232<\273T\377\273Ex\021=\037\003\014=\205F\232\271\004V\227<K`\034=\221`\324\273\371g\275<\003\223*\274$\254\002\272\232\364\221\274`m*\2735\215.=\331\263]=\200\363\271\273\232\342\340\274\017\032m\273\332C(\274\352\344@\274\304l1\274\260\212\266<\316\307\023=q\216\353<h\003\240<\220Z\016<=\267\224\274n\t\371\273QaR;;e\211>\225\341\360\273Yl<=\220\261\210=\305JZ\275\347d\324=mS\363\275\323\010B:\306U\027<4H\230=>\245\317\274f\313\223<\244\247\237\274\200{\022>\036\t\224<\353\357B\274\211p\374<H\266&<\nH\362\274\231^\027<i\007A\275\276\371G\275r4H\275\237\377?\275\255#\001>\250\220\332<\241\2301\274F(\006>T\233\001\275\337\347m:\002\215\230<\274|\022=\001I\004\276\310\370\214\274\256VF>\223x\\\276\334\272\320\275#b\265\275\240\\\010\275\263\010\022=L\007\r\2750\245F\274\362\373a=\351F2\275\315\334\030=\354\000\312=_\034\202=\030\'\323\275\340\361\367\275\022\347\226=;\227\312\274\t\010.=\327\320\325\274j\030<=\222+\203=#\374M=\262A\025\276/>\345=*0\277\275VN\340\275\201N*=le\255\274p\265\252\274D(Q=\01604>\353yN\274\225~!>\006\025\245\272\375\277W\275\362\254\267\2753\r\206>\023\325\035\275)7\334;0\006\246\274\337\2703\275HT\007=q\326\307\274\271\036\340;\352\304\032<,\360\217\274\305\223\021=#@*\2756o\336\274&\321s<\353\2667\275)C+\275T\034I\275\367\001(\275\003l\000=\2453U\275.L8>_\267\240=\301\246w\274m\013\205\275\225`&\275\252\204\311\275\322\021\021>\216Z\267\275$\306\230=5\317\366=\225\r\210\275\244\310\321=z9\r>;\260\372\275yoc<\024\223\275<\213\211\306\274Oly<M\213\303\275?v >Kn\005\275\274\237\330\274\240\264\273=,)n\275\211\000\006\275\034\240>\275:\377\363\274\224\033c\275x\376e\275\022{\204\275bR\r>\354$d\275\211\355\005>9\020\240=\225\007\355<KE\024\272:w\251\272\244\373\361<\211Os<\232\241\252\273\367\253\353\275xA\343; \342&\273k\277\037\273\2423q\276m\255\216<w\263\276;\363\340\362<oa\264;\221\004\000;\362\213\023;\002B?\275\212\316\266\272\307\233\216:\235\201h\272U{<<C\211\'\274(\\p9\204\3607;g\275\240\273\204\224\203\273K\005\013\273\345\241\222\271\367\232\002\273\005\236\264=>;\267;\n`G<\217y\205\273\232\242\036\275\201\246\246=8\010\200=#\323\326:.c\346=\354\324\023\276]m\371\273\231\235\000\2776\0338;\355\217\234<\361\016\022\274\037\347\010>\240\335o\2741\317U\273\266+\234:\262\246\256>4\257\344\275\200\220^<K\323\306=\274\210a>zy\224;\25105:\376\222U\275T\231@:c\252\307;hY7<\206i\026\276\321[c>2\302+>\356\027\335<\013\033\014<\336\354\350\271&2-\272\275\263\'=\204l\037\275\233\'\200\273_\021\325\275\212\223_:y\262\336\272D\227\267;\226\220\362;\3409\254<\026\326\030<|to<\010\335z<c\261s;\320\007\014;3L\256\273<+(\274\004\352\001;\252\0203<\001\231\017=`s@\274\333\247\2629\252\005\n;\270Q\301\273~\207\205\273\227\232\352\272*\277\035;:\263\251<%\310\336=D\036\302\272/\376\212<\t`M\273=\364\253<y\327J=\230?\301\271wM\307:\021:F\274\345Q)<@jB\273\232\240\376\272\036\314\316<Cb\272<r\360N=\306Z\204=\312M{<\210\034\035=,[\010\273]q\025\275!\373f\274\215\323\r;Gk\242;\013Y#=\311\025)\2748\347\021<&2\243;\014M\344\273\305#\210\273Nr\245\273\024\205\326\272B:\002=\315>\207<\272\2400\273W/\341<\304\270\365\273\313q\032;\0234\211\274\260\323\302\273\210\256\204\272\377\331^\276\334HB=;\227\022\275\243\254\215=\252\245i<\331Go\274\346\367\251;\020\352 =v-\227\272\3278\030<\033\213\030\274\343$\253<\007\320W;\361`\355\273\330\344\323<\3560#<D\347W\2748\354\200;\nC$\274\262d\337\274\352\232\312\274\232\354\261\274W\357W=7\016\367;p\347=\276{\244p=\n\272\337\274\360\037\242\2727\030R<i8g=^\020\270=d\010\275\274@\227\254=\214\204\322\274\224\020\211\275\311\374\002>\265T\032>M\\\361<\266\035U\275\201\034\024\276\215F\246<\3436\273\274\2076L<o\236+\276TLz<\324\2530=o\014\375;\220r)=_\251\034<\332&\002=~\245\206\274\211\324\252<\007B4=P\322\264\274\0253g\275K[\214=\374\377\260\275,\320\340=\245\274\t=|L\020\274 0\346\271-\"\275<\361\261\300=v\215\247\273g\271\037\275t$#<\034\002\017\275\206(\337=s#?>\257!Z\274D\376\245;@HE=\332\2521\271\3473\226<.\032D\274\277G\257=\0215\354\272D\034\003\2745F[=\253\226\365<OV?\274fo\014<\320\326M\274e\336\236\274{\307\303\274\'\365\234\274\373\3401\275Zr\257\274\343r\352=\334\351\335<\n\236\302\274\306\265N\275\247c\005\273E12=\341q`=.\305:\275hv\252<z\313\204=\275)7\275\020i\251=\357\017\320=\202\214`=\332\266\310;\215\025$=t\376\317;\350\372-=XD\031\275\212)p=\370\362\230\275\240I\035\274\270\214|<\366\026\312=\261z~\274+\246v\275w\325\271\273\224\353\355\274u8\004\275{{\024\275\305\006i=\257s9\275\220\213\260=I}\303=6H!;\235\207\256\272l\ni;\267\023\020;\346\244\t\276\246\272\254\272\034g[\274CfQ<\270\375\256\273\021\277\023=\257\336*\276\254\246\217;q\232\225;\213\234\233<\346.+<T\331G;\016}i\272\312\346\342\274\236\255\r7\032\005`\272%R\024<\356\227\265<\334\315s\273\036\364;9\337\377|92/\306\273\340\"p\273\352\374\266\273A\227D<\236j\177<\'\344\370\275\337\356\037<\343\241\337\271\247\301*\273\361\022\214\274\241\"\221\274\223\255\017\274\205\025\202\273\2126\325=7\310\016\275\253}\235\274\266e*>\244\217\273\274\336C|<\',\312\274\3126\027>\013\375\324\273\020\244\242\273\3241\243;\006\371\317\275\371\367\315\272\n\357d\273u\356\226=<V\320=pS7<\230\314\332;\260\301\207\275zlh\272}\207g<h(\271\273\371\343\216\275H5\214\275\253\300\273=!y\004\276y\336H<\376\267\270\272@\372\274;\237\312\304\2714\301\312;\343\312\332\271\264\014\211<C\251\020=\202\377f\273\\0\275<\230\305\212=\237P\356;\273B\351;\225\373\221;h\370\225<#,\241;k\024\260\272\271m\354\274\320\2622\273\341eG\272eF\n=\002\345\230;\313\354\241\273\244\250\0359\367B\336\272+q\221\273\324\243F\273z\355\230\2735Ob=\036B\035=\305\322n=\320S\001\274U\371\300:U\010\010\274UE\313<d\223J\273\007A\262;\211\022\267\273\270\326\207;VGl<\204\336\255\273;\267\277<\007\362\353<!W\264<\264\004\226<\271\013\021=8\022O<\263\020\312<\213\302\016\274a\304 \274\341\357\242\274s\314\316\272I\267u<u=.=\022.z\273*\210\256\274H\2514;\343h\336\273\306N\344\273\302\205\r\274\264\274\267<\322\031\200=\2134\361<\261\364A<\322\250\276<\270,\260\272)\313\020<C-\002=\014\265&\276\200X\260\273\340\033\261\275 \227V<D.\025\273\260D\263<\264\203\020>2b\347<\274S8<\224\300Y=;\201e<?N\221;WH\316:\364\\\203\275\001\206X;\212Cs9\017\361\254\273\304&\213\272\232\266$\274X\300\366\271\236C\227\2700w\324\273\006\nW\273$b\327\273BC\206\273\224d3;J\264\001\275\327\300\000<\264k\027:R\270\n\274\035\t\214\275\214*\375=\270\225\321\273w\2321\273a\216\177\275\035y\n?\317\344\032\275\034\322\315\276h0\313<\341\331\024=zp\257<uW\225=@\3252\274\033\356\335\273H\217\303: \211\007\277\357$\237\275\377\2510=^\010\242\273\200\264\246=\242\031]\272\r\020M9\273\212n\275\207\334\375;\273\200\250<*\350\261<v3\005\275\347gg>\363\232m>k\013.\277\271E\300;g\267\253\272p\275H<V\003%=\242\247x\275\004l=\273_.\221<\031=T=\366\345\356\272\260\030\001>\020V\352\274}&\003=\010\252\227<\034G\327<\306%\233<\365\315\336;8zZ:\205\361\243\274\022w9\272\334k\320:\327\350J;u\276\013>\264\000.\274\246QS\272l:h\273\234\241\004\274Tl\205\273\024\205\316\273\001\354\216=\030\342\203=\274\262\213=\024\031w;u\n8:\225\272\022\274p\277|=\006\221\017=W\230>\274\276\000\346:\2079\215<_\331A<\301\270-\273\202\201Z=\032\314\010=\371(W=\3077{=\326\032\331=\226\226\220<\215\374\203=v\222\010\274\232\264$\275\0165\216\273V0\r;\220_\365<\036\244#>\201;#\274\362\344\272\274\345\327\026; \237\016\274\305\302\251\273\014qZ\274\\\304\221<\037\374\367=}\n\017=|$\326;\334\264\317:\235\031\004\2758+\031\274\241\376\014\275g\255\205\275d\233\'\274\224#L\275\243\240\003>\312\211\232\275F\270\220=\352n\245\27413\214\275\311\341\177<X\240\305=\232\224\243\274je\264<\300\243\362\274\370\244k=\t\005\252<\206\177\306\274\303{;=;\341\022=\356\007+\275U\216\177<i,\034\275\356\254\214\275\207\321\200\275y\217\223\274Y\223\016>\315\225\013=\007}\326\273\025\216\323=\373\263#\274\355\363\020\274\320\235\247\275\330\251\335\274\310\035\243\275\017\240W\274\027Ra\2752-\255=b\210\027=\225V\322\275,0\224\275|.\212=\000\314\311\275U\233\n\275\316Pl=\n\020\203\275\345\376\014<-\207o\275@\320\232\275\tR\205\275`d\335\275\2454/\276\001\027\002\275:\200{=\262>\010=\300\004!=\022`v=~\331\323\274\215\032:\275#\371\224\275\227\356b\275\335\235&>\364\033\223=\035\217\013\275N\232\327\274\365\004\334=\253\030\373=8\362i\274h\002$>\303J~=\3442\220\275\0274\306=\033\004\311<g(\000\275\375\335\':\312\373\203\275\234 \214\274\274\005g=.\363\003\275G\326\246=l\252\373;W\243\200\2744\267\222=\214xs=\023Y\034\275\016\367\302<\3749\200:\216*i\275\226\230|\275m\3747\275\230\260\323\275\330\220\"=\220pd>b\022\036\2751\3645\275.\266\300\274\"-,\275Y\253\034\275\336\371\035>_\214\260\275r\363\007>\246\216\374=\347\214\251\275\244N\033>]\336\264=\033\254\312\275\316p*<=\336\376=\324~\024<FO\373=\242\365\370\275\317p0>\263\300\036;D\354d<\271l\256=8Ij=\260\3442\275\020m7\276y\016\345\273\274{\227\275&8\245\275\253<\177\275\223\356\017>\343\n\005=;\3524>\014\213\006>\004u);o\276\204:\276c;\273\023\230z\272\365\260*>\202x\343:\251HD\274\224\230\241\271\234y::nk\213\273\234yL>\367\335\251\273}\233R\2725/(;\037\235\002;\026\262\332\271\0333\343:\316\202\262\273\333\002\263:@\021x\272\260\224\246:\262;\035\275+\376z\274\257h\261\272r\")<\316(I\272f\242\n:\010\205_\272\340)\004\272\224\317\247\273\330\017+=\203\246-;W\357a\273N\205\301\273\030\253\246\271\314\212\013<l\357@\276\243!<\273\263\260\261\275P\244\222=N\3453\273\3578\201=\303\000\255\275i\247\310\273\023l\245\272\270Fc\273`Y\324<\377Q\315\271\251\314\210:\351\256\223=\224A\371;L\261\321;\272.\347\274pT]\276\007J`;\273\246I\272\r\372\010<d_b:\355l\000:\340\\\244;R\035\243\275\361\306.\273\005\267\274>\223\361\000>\260\017\227\273\214\270K:^\347\227\273\223J\2069\312\340-\272\n\222\327:\277\220(<\2449\317\273y,\3359M\313K\274P\3165\275\313\315\215\273oO\341\272\263Q3\274\034\237T:\242\321\003;2\300\252:8\377\275\274+\252\r;\0367\024\2730\317\312;v\367\23493\362r\274\257\311\243\272\'M\032<\020e\207\272\300dn7\351\037H\272\267P\200\275~\360r\273\241R\246;\335\302G<J\276\343\272r\307\3479\321\225\277\273\027\236w<V\036.;\255\375N:.\255H:\032\025\325;b\265\307:\312c\002\2747)\230:8\036\372\273\377\"\366\273\305 \344\273\215\"^;\304\311K<\236zz:\270\232\275\273\255N\342:Y/\037\272\304AX\271\262O\300;W\"\210\274\311I*\273epJ<`\001y:^\336%;\202Ci\272\230Ei;\"=\314:4\005\232\271\320\\\004<\241\277\333\273x\361a\274Y\300\315\273;u\021\275*\222\303\2749\224\241\273\243HV<\226M\205=w|A\275L\214\277=TRz\276\351\013\201<5\363\246;\330\035\177=t\323N\274y\177`<\252\333~\274\374\000\316=\271#Q<\250U3\274\371\307\372<\317>\226=\004\206\263\274pL\347;X\220\376\274\350\026\035\275p\246\033\275vR\357\274\200\372\327=\361\233\275<\242i\326\275n \364=dT\356\274\270/z\272\231\310\340:vrV=\326\340\207\275\253C\251\274\325\302M=)\241c\275\010:\023\275\376\205\225=-{\275=\354\022D=\303\343\002\275\263\020B\276\364\303\006>\224i\n\2756\273\252<\347\025\001\276\316\2642\275W\272@=>]\230\275e+,>\007\323\356;\3415\033=\340G\010<\2724\035=wah=h6\022<Z\377C\276\354\304\251\275\310!u<\'\243\232\274\017\225\n=\263\352\204\274\"@\203\274\016Y\306\274\242\020*>[Q%\274q\260\026=\357\333\261=\')A\275\000r?=\002\212\003>\321\337\241<\214\276\273;\237\035\202=\305G\217\2746\032\317<\243\275\236\274\267\376\365\274\370\326\313\274\013<p\274\325<7=y\323\252=1c\242\274H\326E<\007\317\216\274\367\301\375\274\213\036\035\275jh\002\275\277\007<:\364\343\243\274\374;\261=\300k\274\2744HM\275`\217\242\275>\217\374\274\203w\241\274\215\337\330=\2258\262\275\361~V=O\311\306=2\013s\275$A\336=\032\336\000>a\200\240\275-V\366;1\214!=\372\322-\274\256\227\347\273?\303\214\275\3175\006>1im<+\240\223\274T\230p\275~S-=QP\313\274EM\310:\277\212r\2745\355-\275\357\320:\275\305\224\250\274\027x\366=\301\\\211\275X\347\357=\032\374\006>\267p)=\320\334\343\274j\356<\273+h\221;\230\272\265\276bC\035\274S\356\177\275\364T\007>@\250\217\275\317#\351=\021\2232\275\314\017-=vx\227;S\303\247=`\377\321\274\203\205\316<\231U\332\274\356/\250=u\314\221<\206\226\301\274\275\025+=\305O\236=\217\347\014\275\323oh<=\273\030;\353\005w\275\270\310f\2755\276\022\275Bd\313=\3371\246;\250\037\375\2746\311\020>)\213 <\344\225\353\273h\003\312\275\322d\201\275\017{f>!\212\314\274\262k\017\276\373\201\">\332\263\234;\334\205\264=\245\214\335\2757\225\202=\341^\310\2756\222\006\276le\316\275\266fd\275\223\'\237;`\376\331<x\364\206=\027IY<\211\234\201\2755\234Y\275\331\357/<k{k=\201?\"=\361D\030=\001\333H=+\353\214\274^\0071>\217 \257\274\001\315\217=\207vz\273Fi\206=\354\351\362\274m\247\221\274y\301\r\275\307\253e>\317\216y\274\0220\"\275\333\025p=\370C\222\275\274\234k<m2\034>\032@\227\2754H\336\273\036\344\252<\006\343@\275,\'*=\024b\356\274\021\022\216\275\323\2644\275t\312\265\274\342\223\236=\210\177\332=\276\325\003\275k\222\257<\372aS\275R\363M\275G\211_\275\260\247r\275\271\322\362<\270k8\274\205\3528>hg\256\274\241\321T\275g\375|\275A\025\354\274.:\005<9\310\266=\371\270\231\275\350\243\227=\241\364\374=\3747\257\275\306\264@>\351\343\374=\210\343\316<(|j;}\231\233=\303\201\033\275f\312\307\273\367\216\216\274\370|\014>lE\020<w\360\022\275\362\307O\274d\374M\274k\377\037\275@\223!\276/\265\244\274N\263\212\275\246k\213\275\"\006u\275\322\321\242=\247\326z<B\317,>\000\225\005>fZ\272\274#\266\256\273\334/\234:\001\233\331<\356\222i\276-\277\334\272\2420\321=\246\2242=\001\244\355\274S\306]=i\264\210\276\206\251>\2758\000\262;X\212\023=\350\274\261\274h\374\007<\306\345\343\273\302i+=M\032\274;\325\216\376\273\325)\223<\222\212@=0\272h\274\231\375\037;\306z\222\274%\367\330\274\260\027\317\274[\255\255\274\\\\d=O\000\341;\001v\361=\265as=P\367\210\274\020\022N\273\343\334\324;\226v >\345\356\202=+uu\274\200y\352\274hdX\276\317n}\275[\240\007=\234a\207\274v\2774;LkS\275\335\274a\275\226\376V;8\215\241\274p\006\337<\305xS\275\235\324\242=9\\i<\316}\215\274\021DX=\220\250H\273\223E\256<\317\267\033\274\353$\013=\374\302D=\031\036\021=h\304\n>\275\246\031\276\314\365{=\346\003O>l\004\275<\316\232\324\273\313\344I\273\207\371\300\274\233!\303=\023@\247\273\375\026&>\036|\347<\216\257\336\274\3613\223\275\200\336\341;\245+u\275\312\314\322;MD4\275\312 \301\274\003\250\203<Gq\034\274\244\236t\275U#\020\274\036\022\n\274\333\'\010=\303\177\210\275\323\340T\274\210\270\256;\275r\255\274\030\314\247\274\007\"\320\274aj\273\274\nh|<\247\001\017\274\304\364\244=\267\347w\274\001\275\345;\341\353L\275&\n;\2744\343\215\275\034H\243=\366\361\024\275r\325E=\226]H=\237\352\022\275\006w\204=\327q\324=\306\357{\274\375H(<5\200\034=T\234\321\27472@=\227Y\003\275\000\004w=\023 ,\275OI\003\274K\350\262=\306\326\374\272\006\316\201\274\027\017M\275\222#\200\274\351\357\360\274i\206\006\275F\251\032\274@\226\022=\200g\274\275\345H\216=\266\266\020=\261L\264<b\331\352\267\250\206\024<\352\342\'<]uE=^\\\347:\031\300\327\275\244l\321:i\023\225\272U7x9\333+g=\263\r\233<\270^\355;\320bm<z\364\313<\364\307\013;\273U\240:\372C\323\275P)\3477lqF9\314\026?<W\034\337\273\203w\2339\212\010\3268$j\344;\214n\2568\226\240\023:|\306\021\272I\031S\272w)\027<bI\177=(\n\236\272\240\177\246<\376\301\216\272\346W\224\274\022\360\022>UX\370=\264~\217\273\362\330\370\275\3515\265=\006I\267<\213i\327==\006\217>V\220\263<\216\244\275\274\273\301\337=\'B\312\275\343\005j\273\340\275\014\274:\372C>\220VW\275+\367y<:\357W>bj,\275O^\311<\t\001\006<\327\266\277\275\247\003\017\274\346E\246\273}\215\301\274\252\0200\275\177ul=\0274\264=\2129\010<+\\\233<\007\277]\270\351\025\216<MY<<\327\341\026\275)\345\026;\200t\241\275\030\270\202\273\260\266\031\2725\357l<,g\376;\007*\355<\375]I<<\020\273\273\037\356$=\262n|;\300\364\216:\"j\302\275\226\303\250\273a\303\2319\177\273==\307\270\321\273\024%\3529\263\232Y9\274R\213;\010tm\272Z\310X\271_B\342\270\007\"f\273\222\317\315<\250\304\243=U\246\'\274b\313\336<8(\311\2726\013\207=\322#\210=\026V\205\274\010[\313;]\313\264\274\207\273\276;w\235b\272I\326C\274\037Ua<\024RY=\225B\016=\352\202\361<\355\306\026=\367\353\r=\267\317<\273\242\201\217\275\0205t\274\337#\330:x\367\016=\177\345\300;\001\026\3359\316\271\031\271[\007\027<\034\362Z9\257Ya:\">\223\271\014r\240\2739H[=<\235\307<o\232o\273bS?=\036\026\2369[\245\254\273\204Ss;dU\240=n\360I:8\317\377=s\362\240;}\002\223\272\357\036C;U\370\017\276\211\017\214\273\t\027\n;\210ru;.\371m:Os\270\271\217\327\336:H\330\026<|\025F9=u\267:\245\250];0\034\355;\266\337\266\273\252\340\002:\346\177\000;4f\3149V/\241\272\235\263\354\270O^\222<\n\204\005<\346$H>\274\225\345;\371\253\003<\302\3705:N\031\301\273\005\243q<~\252\270\275a\272\365\272QU\212\276\221B\262=Gzq\274\021u\270\274j\317b>vc\034\273:5\270\274(A:;\002\014j=\220\272\004:}\270<;\276\254\366>\215\323\005<GnJ\274\235o\006\2756\332\350\275\266\2668\273+\223\2769\321\272\353;|\210\02294\322|;(1\321:Hv>\276w\233r\274\024\346\t?Yi2>~\233\213;\250\215\0049\334\262\021\274E\254\322;M\375<;\331\017\201:\331\355\221\274o\037\263\274M!0\272\225g\204\275 \250\322<c5\253\273\207\3713;\227R\235\274\227\363N:\315\261u9\304\350\276:{\200\362\274X\215Q\273M\210\342:D\377\317;\340%<\275\321\304\006\274t\313\024:\314)\255:N\357\216\271r\354\225\272\025\006\221\270t\233\216\275\224\356a9\225{q<\305\276\206<\274\016\032<\227\255\341\271\257\t\353\273\341 \023=\262\313X<\375\206{\271\t)\004<\226r\305;\265\370\302\272\301N\017;\265o#;N\240\212\274\275p~<]\241\332:q\251\225\272\335\312\021<\001%t:\261i\267;\274$\216\274.WC:\026Q0\274\234\220\314\274\224X\241\2730i\267;\001\250\";\327\306e9a\234\004\273\265D0\272\350\212\360;\017\320\363\274\'8\";\023z\221;Bk\254<\"\004\241\272\034!\234:D\302\024;\347\'\213\276[p\204\272\341\245\356\274\016G|<\274\233\177\273\323.\250<\3641\t\276\307\224&\271\374 \007;\267bP<\2273\32191\263\365:\345\222\220\272,Z\321\273J\362\244\272\250n\273\272\336o\330;\017+\252<\312\225O\273\341\314\3159\245#\005\273\270\325\254\273tqi\273\264\244\224\273\036\317`<k\014\341;X\212,\275\276ic<\204.\224:pJ\335\272\2403\000\274\355\244\227;\215v\030>\272c\037\273\027\263\350;\326\221\342<\351\267\032\274\353\317\317=\241q\\\275\375\246\000<\023\366L\275\334\206\254=YP\254\274q2B\273\221L\222;5w,>\320\241\333;&\320`<\326Q\244=\350\232>>%l\337;\316H\252;\216u\355\274u`%;\027.\200<\345\317\361\272l\035\315=R\234\000\276\211\022\253=I\253\310=v\321\035<\217D\247\272\352\204\260:\366\377#\271\031X\021=\024$[\272\260J\204\274O7\367<\027\206+\273\211\377\261\273\r\036\032=\220\264\327\272\250\263l;\022\0017:\306\332\223;x\241Y;\036\010\231\272\017\375\252\272\246\277\247\273\210\357\300\272\260\356\000=\245m\006\275C\335\203\2739\241\3769\002\335M\273\001!}\273^\333F\273\263Yx\273\251*o9-\204\247;\323\031B=j\256\224\272\014\002_;c\316\325\273Z\027\020<\366 \017\274\000\312\223<\362:\010\274\276\204*;#|\203<Pe{\273\353\255\247<J\217\275<\314\214\264:Or$<\271\217\231<\2248\322\272b/\005<u\265\325\273\261\033\027;5\022\276\274(z%\273wX\223<\275\226C<7\206T\273\320>Y\274$X\023\272f \274\273/\271\337\273p>\352\273\241\'I<;k\n\274\001\006\260<\225\370s<\373rA<\242m\273\274>\217\335\272\317\3659=\n\354D\276\334\230\341\273\271\3276=\201\276\332=\240E\203\275\212z\244=\254z\375<\346\237\031\275yvI;G\016c=j\272\267\274x-\257<\326\332\312\274\351\3450=\355\022\307<AZ\226\274\007O\'=\307\353)\273F\215\001\275\305\311#<h\352\200\274\211\205a\275\306AO\275\023P^\275\255R\227=_\336\"<\300\223\276\275)\303\336=\3267i<n^\350\273OC\342\275\312V\265\273\200;\216\275w\361\344\274\035XA\2760\312\273=\353\203\250<,F\272\274%\255B\276\340\252\231=\210\233\237\275\303\300\320=\'\324&=R\203M\275DV\007\273$W-\276\221\321\241=\260[\347=j\262d\275\017\234\034\276\247\032\007\273\242\305A=r~\273=\024#\033=\251\3566=Q!\251\274\246\005K>\t\315\250\275\\\255\225=\344\311\006\275\366\022c=\240\030\317\274\371\302\203\274\267\023\352<\265Q\034>\324\376Z\274\225\332Y>\233x\226=a\331\202\275w\322\002=\035\332->4Q\214;\352fc;\210+<\275\355\033\014\275^\323\037=\013\323\342\274\031j\226<_\313\036<\'\344\247\274<\t\177=p\037\317=5[\362\274Ha|<\025N7\274V\3278\275\253\304J\275\347Z<\275>\206\273\275\343\005]\273\222t)>\305\337\273\274\020\350K\275\376\341\271\275\353\353\324\274\262\251m=?\265\244=I\323z\275\030\336\240=\004J\265=&\347\240\275g\307\327=\213\303\350=s\3635\275\2511\273;\007\205\201=\276L\334\274a \313={#\032\275\304\236\357=\360q\307\275\200\200\356\274k\227B<\253\244\301=\363\022\025\275\3203\023\276\372\211\230\274i\346}\275B\213u\275\030u\227\275qHo=\262\363\032\275\232\250\017>\277~\022>\033U~\2755E\326\273*\322\257<\310\036&\273\213\234\204\275\310\321\237:\330Dd\276\013\326\034=\225E\t\275jL\237=\307\331\307\275k+O=g\260\r<\332\354A=J\n\232<\200\3340<\030q\004\274\347=\027\275\330\222\242\273\246k\230\273e^\334<\310rJ=\312LS\274\177\302\235;\233x8\273\356\010\344\274$i\276\274)$\201\274\206\345\021=\211\351\253<\303\202\023\276\016D4=X(@=g?\244;\t\213\321\274\373y\000>\211c\007>\360\207\312\274KDN>\274o\016\276\251\246J\2755\323\316=\263\374\027>D\236\022=\234\010@\275\371\374\301=\204\316\321\275\314x\304\274\t\206|<,2G\275\2046\006\274a\265\204=\213w\031>C\021V>\264h?<\036V\026=\324A\351\275\235c\317;\352O\027=QTz\274\342=\223=\014\310M<)k\245<\337\360\240\275,\005I=\215@\352\273\2340\367<]\2316\274\017\240\272=x~\213\272\314\301\264\2748\2750=/\241\001\275\257=\267=\313e\325=\2247\033=\245\333W<\332Z6=-\300\313<`\224\245<\206N+\274\270\307\244\274ii\341\274+\270\245\273\330b\210=]\3449=m\024@\274\344=*<\352\000Q;y\r\226\274\023\271\245\2746\260n\274\216\262[=\037\320\245<\366\202\003>\3520{=NyA=\025\030\021\275j5h=\305\245W=Y\2629=\3143\004\275\016\341\204;\271\t\207=\007\275)\275\225\367\225=\003j\307=\205\256\224=\345\024\303<\235I\225=K\362$<ID\023=Y\354n\274S\365\343\272\205\201\r\275\213\305\271\273\005\264\322;\210\332\344=(\024~\274\351\357{\275\016\267\236:tX\360\274\322\222\367\274%\022\236\274I\221\216=\032)\026\270\253k\245=\265\314/=*\325\241=\326\306\207\273\320\177\314;){\340\273!\215M=\307\327\032;\241\354 \276\336\307\r=\346P\266\274f\347\351<\377Z\225=\010\204P<\346Ff;\217\304a<Bl\252<\006\010\236;\347\222\224\273\263A.\275\302\374\245\267\350\177T\273z\304\343<\216#&<z\341\214\273\205M\256:\036\250\257;\211l\035\274\217\356\210\273\016\247F\274\025>4<N\007\336\272=\037\376\275d\336\027=Q\211\020\274[<\2408\377\027\220\274=LL\274\035>\343\274\002\205\254\274Xq\025\275\365O\223>\362\367\270<+\031\234>|\022#\275\272\226\356<\n\003?\275P7\271\275^\351L\275\277\3508\274=5\021\274\234V\217\272\263)5\274\216g\353<\214G\355=Aa\210=3Z\373<u \333<~\365J\275\241\375-\274\345\256?<\271\202b\274]X\307\273\361\330\">\031\034A>\237\322*\276)\003\375<H\375\221\273\276\003\007<8\021\240\274\266E9=\250\202\220:\024\200\217\275\340\213o=I\r\270\274\252\033\307=\374\024\017=H5\363<\257pt;\021\2661=\013e\367<\315f\'<I\203\276\273\n&\203\274\3742\220\273\242\354\\\273$t\201=\325 g=2\213m\273(A\225;\256\031\210;\262Lp\273L\341i\273\325\212.\274\211\270D\275\363\213\266\274\243x\227=P\233.=(X\020\274.\254z\274\320\333\261<\032\036S<U\211\032<\367\206\247\274<\225\256\273\200a\030=j\364\345\274\300`\037=\366\346G=\335H4=\207\032\007<Oo:<\311~\306<+!)<\307\275[\274\013\355X;\230a\002\275\341\255\214\273\357\331b\273\021\275y=\355\273\306\273#\270L\275\311\353\351;\014X\366\273\017\330/\274\202&\262\2741\244\377<\022\273\007;\033\246\206=\024mc=\212\"\022<Q\202\253\274J\020*\274S\t,=b\035\220\273\375\224\013\274VY\371\273t\257\271=\342\321q\275%\226\211=L\302\335=y\313\307\275\014\356\304;\233)&=O\313\017\275\277\202\242<\"\222\261\274\323\323\304=\365\375\200<(\010\201\274\233\030\017=*R\014=N\001\373\274\270\252\034<\321\3613\275\"\277X\275\266&Q\275\211AS\275\350\210\331=\230\020\026<\223\177\353<\276\352\265=\372.\213\275\t\374\234\273\2435_\2743E\004\275\372i?=\032\220\234\274\261c,\276\204\347\340\275\231u\310\275h\335H=\003A\301\275E79\275\260\346\261\275\275\351)\275\274<\305=\375\333>\275f\025\035=4\2441>\324\235\210=\3446\220;\246\352\007\276u3}=~\264?<\200\3274=\331\237\343=\356\0204=c\033\\=b[#=\242jQ=\245\3645\276\223&\302;z^\212\274\023\342-=\233\035\304\274\r#\345\274g\226g=\\\250O>\277Aj\274Pv\341=D\201z<\231Ek\275\201\203\274\275E\206\375<\2516\330\275\336\0359;\314\371\250\2745\231p\275\342\201\327<\335\236\325\274>\370=9\317V3\272G\252\270\274w\256F=i\377\256\275\357\260\347\274\372ix<Gn0\275\003\0056\275\301\277P\275\350\001\340\274\264\256\014\275U\332\377\274c\310/=6/y\275\\j\271<\007\251\322\275\333\204O\275\312\326\201=\3279 >t\350\331\275\377\237\005>\215\037\266=\211\335\223\275U\014\300=L\177\332=\272\327)\275\210@\3449\350e\223=x\256a\275\320\027l\275\363n\300\275\343\025\032>\351:\\\275\277\352\313\274\263\373\234<m\337\303=\251\217\014\275O\364m\275w\345\350\274f\315q\275\305\232n\275\245)\265\275S\235\326=\002\274\263\275}\313\021>|0==pZ\377<\023\356\355,zKe0\361 g0\000\223\\1\343\265m/\375V\n\257&gX.\36101,\025/\274\255\261a\004\256\r\000d0T\303\0040@F\272\256\374D\237.\"g\342/\236\001)/\243H\233\260\361^\277,\250\275\234-\016\327[.\030\022?,:\303~.\321sM.\320\213$\256\030\263\251.\206\336Y/\226IA-\372q\355.\371*1/\306\333\3750\333U7.\353\257\265/\3519\365\257\002q\210\2604\215\307/Z\242\257/\017\206\030\260\200\357B\256\233\200\314.\312\343\033\255\357\305\025/\205\203\230-\261\024V0\243G\312\257\322t\0213\202\344\376.\242\247U\260\026\367\245\257\256\000\3451\212\255T\257\306AW1h\336%/z\013\t\2577\022\261/~\005y.ZN\333\257\243\204\314/\353\272\t/\305|\005\256\241\216\031/\217!\2310\236O\2330\274a\240,\234\004\225/\263\320\210,k\257\3050\203\021\2520\355\355>1\373\275\227/.\200\327\254\305\233\024\2566\005\250+\007\314\367-BF<,\212\036\2530E\006r0\002/\327.\302-\333-\304ho0eeD/\n{7\260\000 \301)\223\"\343-\034\322g,m\321\035-r\223\206.\266\233\263.\37496/$\227\220.\243\177)/\210\217$-/\"\263/\247x\302/\267P\3310\024\010\033/\375\020\0130\205&\265,\024+Z1SNR1O%@0\316%\0130g\371\000\256w4\2530p8\262+0\255A0X\233a/\221\007\0211[\342}1\245,a/:\036\177.\357\372K1\202\010\204/\355x\"\260\201\224\313,\374\330\244-\351##\261T\330\2450\006\322\222.C0\n0C\214\245.<t\375.\200S\212/\300\337\036-\004\357\3170\314/\3050\021\350\2210\315\023k0\000\033[1\nr\035\274\002\025%<\245\366!=xsM\276I\0341\272\210\312\300\275;\030^=$G/\275\245\257\245=i\332]>\242\241\257;\330\r\216;\245P\010=\242\035\002\274\222\263`<\375\343Q\2746\313\311\274\267e\326\272\377\017?\274\367F\372<d\2749<\2702\220\274\355\256\267;F\027|\274V\371\021\2753\311\000\275\004\201\246\274\216\314\t=\205]!<\347\324d\276P\034\221=\256m\251\274w=\007\273S\207\340;su\241\2748\217\253\275\227\305\336\274\275ge\275 \031(\275\035-\241\275|aM>\305 \352<z\001\305<vj\030\275\005\3335>\272\331\346\275\\m\374\274G.\222<W\004P\275\003\354\361<\311\'C;`\320\307=\003S\r<I\360^<\020\326\030=\315\010\2748\273bs<\010O\035=)Q\220<o\316g>\334\027~9\271\366\203\275n\222\314<\264CD=5n3\274\337i\034<l\231)\275\312\006\002>O\232\263\273):%>\312\326`=\030]+\275\023Q\037=\333\322s\275\325,r<A\343A;\207\260\007\275\205\355\021\273Z\340\316<\274\334|\274\177\307.=\322uY<\264\236O\274HO\204=\336?t\271\335\335\204\274\330\2041<\335\230\240\274\213\225\330\274\335\277\355\274\225\\\304\2741\317\3639\364]}=t\205\346=\242\310S<8|}=\222\206(\275\034,z<\277\3459\275\250\203r=\033\377,\2758GK=\017#\216=j\225Z\2755\256\265=2\342\240=]B\204=&\263t;\213\\+=\266\312\307\274\355\375\210=\334K&\275\037\014\340<\036\247\223\274)#\006\274\035b!=5\234\226=\n\371\253\274\024J\257\275\225Z0\273\2445\"\275\023\302\032\275\210\327\212\275\312\242\212=\260~b=[\016\307=P\337\236=\320\325.=\374\027y\274\270\204\367:L\265\030\275\217w#=\010\277}\273\002\332\345\275!\n\211=MNL\275\002\021\360=\307J0\276\260RI\275Y@\020<g\332C=\227em\273I|\211<\177/\220\274\261H_=\214\023\206<$\346l\2747\371\016=2\235\203=\036\337\271\274gg\016<\302\231K\274\312\306(\275\233\347 \275)\247\312\274t\221\261=\td\335<-\373=\2766)B=\340\001b\275!\270\201\272\362U\326\274%X\227=\370\277\204\275\230\177\313\274\021>\016>(\2520\274\\\274\017\275\242\326%>\272\261\031>\326\216\025=\331\312\214;\300:\271<\\=\005=\002\214\035\275\021a\346<\313\005\006\275\202mG\275Z\326\273\275\013K\367\274\344\236\217\274\325\275\216\273\225e4=\3536\245\275fD\342<t\203Q=\363K*\274}\200\235\273\320KG\275\335y\232\275\367\207X\271\037@K=\210\341\214\274\232\206D\273 \373B=h\005=>\277\351\023\274\254\327\030\275u\356e=7\304O\275\320\210c=A5^>\202SG=\215\343\273;\321v|=iE\216\273\234I\344<pP\251\274\250\r\227\275\271\220\315<\361\025l\274\344\374u=\262>\370=\013/\253\274\333\273n<\\ \343\274\267\367\006\275E\200\034\275\237D\031\275V\2610\275V\232H=O\233\255=F\r\356<}\220\301<\ra\217\274\222\327\335\273;o\226=\367\373\266=\300L\021\275\206\004x=h\217\243=\353\216\202\275\237\023\356=\254w\257=\221]\206<\030\026\340;\216\363\265=\032\346\017<\322gW<\304u\222\274\010^\303=\320\227\250\275q\177\235\274\210R\026=\215\324\034>\014h\330\274\250\307\267\274\253z\270\273\035\325=\275\235\370?\275\3570\234\274\252\316\266=h\321\213<\017\005\373=\361\025\005>\222F\003<\034\377\2548\223`v<\025X\024=\356@\323\275\264T\363\271\r\177\204\276\230a\"<\323$\332\273S-/\272\014\301\215>)\373\234<\332\317(<Rp\020=*9\226<\232\232s;g\027\027;\373R\000\276\317 \032\273\246\034\255\271\233\212\374;sp\036\275\314L\014\274LG{9N\034\361:\356%\n\274\334\262\267\273\375\336\331\272\036n\246\274\214\240\216<\323\002l=-\006I;\372\3230=\373\263\036\274\211\353P\275N\r7>\301\357\210>\227U\330\273^\352o\276L4@=\305\030\032\275Q\255\016\276\010\324\211\275P\324\260<Kl%<\030v\221>)\302\2119\034\230\342\273\335 {;5=\276>k\036\207\275\332\351\274<\335\017\204>\3250\272\275]\273~<^\265\037<\372\204f\2756\250m;\210\341\230<\023\301\351\273N\375V>R\371\343=\267\342\333>pT%\274\021$\333<y{\202\270\'\020\272<bOU=\322\375\265\274\035\374\261:Y\3173<\204\'\311\274\271Q\200\273\321\314E=\\\032\n\276\310\232\311<\022P\214<\024\230\326\2745\004\316<L\324\010<\305\301\r;\321\300\r\276\310\350p\2748\312\007:\276\003%=\177\202\247=\251\177\030\274\326Cb:\0162.\272\346q\357\273\356\261\217\273\262\262_\272\244U\022=_\007\207<\013G\340=R\002\255\273\310\323d=;Ms\273;\350\257=\224\017\240=\327\252\312:akD:\030H/<\307\324\363<\373\276\351\273R\304|<\3418\251<(\301\336<D\323f=\351\333u=\264\374`< \216\301=\246\232o\273\321E\273\275\265b\000\275\2568\023:\\\037n=\212\341\333=\354T\r\2741\2428<\036\351\267;1]\032\274\276\223\352\273\234\317\213\2736\275\333:.\325\273=m\367\307<\307\246\231;o\317O=\022g\240\274\321\330\035\274o\350=\275\301ZO\276on\377\273\373\223\"\276\372\320\224=\022\343i\275yp\n>$)\254\276\377j\244\275\320\320\0219\273\264\225=\265)\212\274\237\307\216<V\273\242\274v\242\313=\312\330!\272\362z\231\274}m\024=\312Y\257=\340\242\330\274\375\265<<kD\375\274\220GE\275\026\267@\275l\010\n\2757\013\365=\354\023\376<\037\271\214\276\247\016v=\210Mf\275\021[/\272\356\035K=l\260\310\275\017\310&>\024g\235\274\351\376`=\215\372\026\276\222\257\033=\277\200]>f\2177>\226\'\254=G.\353\275\037\207\230\275\240_\226\274\213\275-\275\225w\023=\227s\304=4\021\301=\246)\233<\023\000C\275\326\3122>\373\306\274<\271\010M=\3708\302;6\312\025=\033Pr=\303\275\221\275\t*6\276bie\275\304\251\237\275z<y\275\252\260?=Cc\262\274\356\374\245\274\210=\034\273\2646\272=u\023O\274|\306\327\273\230K\237=k@l\275\276\237\031=\003\341\225>q17\275\243\251p9\265\321d=\356H\256\274\323\306\006=\343R\304\274\262)\033>\004\306\315\273\250~\274\274y\207|=\020Z\366\275\004\254\305\274\221l\226<\230\025\230\274\220\271 \275\r~=\275\031\305\377\274\345\253!\274\301\272R=\3508\276=I\001 \274\376\376e<\361\010\270\275\375\006\033\275\326\372>=ka\001>\023V\311\275\314bo=\355\212\363=\226+\222\275i\t\311=\212\2051>\024.\024<\032\372\314\271\312\301\233=7\210\230\274mx\214\275.n\013\275\346Y\r>\2569\263\274\2365j\274\307\204^=u\241\200=\370\225\361\274\213\360\226\275\206\270\233\274\001?Z\275\010fW\275\256\265v\275\317\341\014>\326\022\316\275\321\320\023>\246q\253=\t\221E=\240y\254\267\035\241\237\273\205B(<\361\370\251\275}6b\271\216\304\377=Yh\247;\305z\035;@8\355\272\253\315\213\276\305}\223;J\310\001;\222\223\027<2c\013\273U\230\024:b\3238;\334\n\211;c.q:H\313\265:l\257\022;\347\316i<\316\312\260\273\374\206\3409j\020\335:\022o\202;\264\253i;\221\326\235\270\202\013\351;\262v\206;\265P+>\360\013{;\203p\217<\'\255\326;\223\213\246\273w]\335<\201\365\354\275j+1\272\221#6\276T\243\271>v\277\247\273\241\207[=\316%\003>\022\n\232;\274\216\305\274R\300R\275\013\364k=\275i\343\271\0274\036;>Zp\275\354@\023<N\314=\274\336\201C\275\364\355;\274\205\300\235\273d\342\2209Y\323P<\351&J;x\177\207:\205z\035\273\334>\227\276A\240\023\2744\030\036?\003\377\312=\244\025*<\014N1\271o\014\020\274\004\037\211<}\242\273\2726\n\0179\250\272B\275\264\336\217\274\243\343\217:\013\365[\275\r\216_;\032\207\003;\030\254k;\232\230O:-X\347\272B\030q:\177\363\032;\210\254\306\274\325\235\370\272\316B\351:u\023\234;%\014\003\275R\304\366\273\362\325\2479\016\222\230:\333Y%;\021\351\347:\r\245\310\270\346(\250\275x\231(\273\245T\222\273\366\260\030\274ti\235<\"O(\272\213m\004\274\300\364\"=\352\014\016\273\243w\216\271\216f\037\273F#\007<4\327\031;\236\035\227;\t\033^;j\322\020\2748\006\211<\266\217@<E\321\211\273#vq<\371\3525:V\'\313;\027b\003\274\236\035H:\233Df\274q]\207\274\307\177\233\273\326\371\3179\271 >;2\"\244;j\372[;\030\256\207\272\243\331\364:dp\246\274s\245\005;fuY\273q\207\004=h\334\2479+5\211\273C\270\275;\021\275\223\273\251\2075\272\201\307\261;,\241\257:}\235+:4N\245\273\366\256P\274\014\374\0269\306\337&;\237\227\024<\303\300\277;z\361\005\272 i:;*\346}\271{\330{\272$\027H\271\347\320\020:_b\356\273\327\334\205\274$oP9\r\335q;\000N\2679bC\264:\027\342m\272\312\221\025\270\376?z\274\265\335\245=\326.2;\016b\245;\242SC\273\267A@\271k\343\222<\014\357\321:\000\334\206:;\237\230\275\t\342{>\225\304\241\271\220\377\322=|\005D\276\301/\241:RrO\273a\300/\275\371w\217<f\005\021\271hHI;\241\004-\275\275\277\221\274\202\036\004\274\202\014Z=\022cU\275l\347\276;J\210\3218B\341F\273\273\023\342:\253+\024:\366\000\236;_7(\276\262\224Q\272\375\034\257>\327\257\271=\"\244\274:=\274\0239\023G\370\273V\367\355;D\276@;\2138\203\272\032\014Z\274\227\270g\274\001=\0069\n\226\345\271\213\202\016\275K9+:\3558\211;\331A?\272\022.\220;[\344\236:B\243\";/\253\212\274-(\251\272[\240\035\271l?\007<\033\324\254<b\013\214\274\014}\3439<\324K;\220h\272\271\002\320\215:\006;=\272\333\017;\275\370,)\274\034\310\211;\220\037\202<i\230\355;\335|\237\270\337>\340\273\215\237h<\244\376g;\253\306\200\272\340\333\321\267\231\207\262;9\210\252:\373\203\361;\212L\252:N]\252\272\025\207C<\270\206\335;\371O\252;r\277$<\0376\276:O\317\3239\262\003\235\272\010\347/\271\375\311e\273\325?\342<\035T\204\274f\202K;VN\210;\210\314\207:\276\254\306:\022o|\272m\013\255:\242\201\001\273P\317\351\272\252ml;v\274\006\272\303\2779\274\263c\3469\342\353\014=\244\004\300\275\376^J\273X\272\212<,\203\225=\016D3\275\021\002\207=\315;\313=\006O\335<\320\031\355;\014\\[=3\005\215\274\254\267O<\337\274j\274\235\\n=S%\031<y\313#\274\372N\300<+Q\303<\317\262\253\274\260\307\224;N\021\241\274\215)\024\275\272\336\n\275\t\217\350\274N\246}=\016Z9<\331\221\214\275\237\271\217=2j\314\274\256X=\273kkE\275\213\3008<\276e\216\275\016\022\306\274\373\027\002>\021%\216<\344\000=\275\254\027\251\275;#\013\276\'\323 ;R\030\240\273]\331$\276\037\270w=\003U\000\275\334\336\273<\230\245\007=F.\027=W\321>\275\037\207\277\275\036\020\332=\370\365\030;O#\376<!m\356=ZH\020=\224xO=\332D\245<4OV=\244D1>bmq\275c\"\026\2768\230\n=\242%_\274\265h\371\273\354\r`=\304\203\035>\360p\t\274a0\345\273e\213n=\350\225/\275\001\027\240=z\304}\273\000\014\225<^\357\354;\025\251.=\017\332\250\2747\267\314<\217\244\216\274\316h[\275yWc\273J,.\274\'\377.=BT6>\314\316\233\274>\r\007<\347\245\320\274I\217\350\274\374\013\r\275{\354\321\274\243\263J\275\351\250\321\273\224\212\213=\004|\306=\370\316\344<\363\360N\275\341]d\274\20523=e@\361=7\274\211\275{qF=O/\203=$\374^\275\224w\265=\263\301\265=\000\223S\275[\332:<\323\221\204=\247Z\273;\360\351\226=\0168I\275\3721\302=\220\314\213\274\240\013\325\273\342\273D\275k\3329=\224S\305\274\270\356\327\274\026Z\217\274\207\327#\275\251\350,\275\306\351\023\275\223\261\267=X\246\016=LR\331=6C\221=&\221\350\274\351\216\212\272\3669\247:\336<7<\252\356\301>\331\347?:l\344\244>\314\227\266;\236\021?\273\022\236\210<*y\223\276\263p\335\274e^\360;>\241\347;\220d\021\2734\021\336:\356\226\260\271\313\250\260<Io\235\272l\004\271:W\366\244<\031\220U<e\n\216\273\320\262\005:_w\324\273;\"\330\272J\206\226\272\204\225\202\2735\230e=,2]<\362N\345>\333#E=\374\026A:c\n]\272\020\202\213\274\033\204\377=\311\333\224\276\217\r\215\273\341\301H\276\177`\030\274_\'\306\274\341\305\221\275\204o\377=<\331#\274\"2\257\275\310a\246<\024\277\315=Bt\t\273\360\317U<\370|c>\303\335\037=\264HS\275)z\223\275\302l\246\275\331\233(\274y\255];s\036Y<_ER<\021\331\263<\261\212\365;.U\252\276\024\005B\276\217{\301>s=\264>\032\030\025<\332\374\236\272\364\257\010\271\357\323\207<XuR=\026Z\0018\265m|<\231\365\256\274\363\253\035\273\001\340\021\276\213\336\232=B\277\006\275Q\304\310;3\270\034\275\321\345\027\274@N.;.\231#\272\022\031\204\275bC\273\273h\254N:()\256\273-$\267\275\310\311\267\273\222\030~:\2141\337\273\336K\321\272uf\336\272\314\322~\273\204\347!\276\210\276\301\272\337>!=87\245<\377\360\000\273S\021\306\273\230U\004<\333x\251=\223\202\010=I~\225\274\"\260D;\013\346Y<~\n^\273\315\226\375;\004\002\314<@\350\216\275t\253\312<\213-\337\272\323!M;-\021\033\274\240\2579\274P\372\344<@w6\275P_\305:b\2249\274\n\211=\275\234#x\273\026\205Z\274\345\\\244\273\343a\'\273\001\r\203\273\310\\\245\273e\367\272<=\266\224\275\352E\243<m\004-=:\217\245<t\3327\272q\333\250;\020\326\271\274Ut\024\275\267PT;\034+h\275r=\305:\303\300\307\273A8\370:\237\037\305\273\374\242+<\363\003\250;\332\231\037\274\277\357\022=\016\253\327:\253\342\222:7\324\202\275\363\264\256\272\235Y\013\272\200I\362<\000\\i<\n\353\t;\2006I9?\327Y<,\250!:\\\251\227:\030\342\307:u\253\317:I\014\206<\244\340\010\275\265\231\223\273\365-\203<\023[\352;y\376\236<q\307\266\274+\371\221\275\355\202\347\273\343f\306\2751\036\352>\217<0=f\371\210>\263\275\230=\3524\207<x\274\031\275j\037\310<\224\336\243\274H\207i\273x_\234\273(\327\036\277\241@\320\274\2758\357\273\245\016=>\261\271!>B\215G=\"\271\265<\031eK\275(S\314\274\372\207M\274N$/\275\007z]\275\355\273^\275\376\227z<\037F\251\276/\317\363<7\214@\272\346u\013<\260\334\n\275\335\371I\274\235\r\210;\265\014\200\275H\221\000<D\342\271\273\341yQ<\017oK\272\223\205\237<I\377\322;\245\356\250\273\253NP=\260\352Q;\220I\223:X*\322\274\226\342\006\274\354\017#\272$d\206=4~\303<\357\251\r;\320\363\341:\325\230.<8\366\3339\010\356z:\030\210\350:\345\347B\273\021V\177<&\321\000<\37613\275r\304\250<\320I\032\273\'*\225<\307\362\224<tD\301\274\221hL;g\203\312\274Q\264/<4o\330\273U\"\211\273*\302+<\251;?=\000\337e<\372\301\000<\341v8=M\201_;\355*\014\273\021\023\010\275c\335\237\274\031\023\210\272}\366\242<\332^\346<g\376\004;\306U\213\274\213\325v<D\014K:\031\325\203:\310!\251: \005\030<HU\033=\374{\233<\366=L:\343\343\013=\203q\221\273U)\223<*\354m;yA\205\276\275l\021;6\361\204\276\276\362+=\307\251\305\274f\000\036=\346\347(<\206\365\356<\035\253\010<\275\240\023=>\213\252<\274\375\347;pE\252\273z\306\206\275\332Cs\272\337\3450\273\370\352\301<O\325\230<\353B\007\274\315=\364:\361J4;\221\340\214\274]\343D\274`sN\274l\306\324;\321\201\003<H2?\276\313\030\006=\017\205\250<\266\232\3119\373W\273\274\366\345\024>\271~\255=\246\034\274\274\257\350\241=\244Ny>\260\376o<a\274\355=\245\026\n=\307\215\032=\342\317,\275\001+\275;\240\375\366\274\031w\205\274R\347E\273\226%\r\275\247\332\344\274Z\257\017<\350\335!>\255\262\343=\235V\257<\312)\341<\316\316\336\274M\346\363\272q7\301<\027\366\217\274\274 \006>A\350^>\220\030\320\273\316\361\n\276\262\032\034=D;\237\273<\217\320<\376\313\\;\350`S=\034\203\277:\207X\270\274{vU=\241\257\272\274\224B\002>\340ID=\264\234*=\243&:<\331\351\320<\212\226\367<\227\333k<N\307\341\273\241\363\250\275 0\023\274\247\n+\273`s\205=\327B\217=\000\024\373\27388\253;!&|7Y\274\"\274\007R,\274\247V2\274\315\007\343<(\2017<\t4\270=\003\260B=\350U\261<\327\347\255\274\256sa=\027\3423=\353\377\272<N\037\216\274\221v>;x\2601=\233\234\367\274/E~=\240\212v=\340\203\250=\310\320\253<BN_=\233R\251<\303\374V=\337x\n\274\020x\223\274sN\r\275BS|\273L6q=6\250\364=\021;,\274\321\335\036\275\351\305\376:=\355\213\274G\227\241\274`J\274\274>\003\007=Oc\330<\225\350\217=\300\016H=\277\315\374<\356Z\003\272\234^\212:\321\020{;%\246o>H\004\247\271\340e`\275\"\365\377;\261\207)\2733\314\267;\222\366\315\274\232\302\203\272u\317v;\352g\231;\365\254m;HSu:j!5:\3102\033\2728\035\265\272r\223\26797Y5;1\033/\274\315\354?\273\026hx9\006\203\275\272\324\274]\273x.>\273;\337\322\272E\340\314;\014L\273\271\241}\305=\212\276A< \245 <\241\317\324\272\010\230\354\273;-{\271\013RI\275z\216\313\272\013\364\216=\374<[\275H\345&\273\332Z\022\276)\365\227\275OJu;#\020\214\274B\r\003\276_,\246=\260\320\315\272;\375\211;]\263\317=~oK\275\307m\314\274V-\202=v\251\246\275\372\266\206:p\321C;:;0\274\300wT;\314uB<\240\204\250\273\360=\372\275\234\177C=\352\245\371=\026\304|<\311$\r<i\367\377\271\335\300\322\271\024\221\216;:J\226<5\361\301\270zQ,\275\341\030p\274\270X\321\272V\006+<IW\254<\\\244\347\272s\260\264;J\013\203\274\250\030\221;PL+;\264!1:\234\203\260\273\376E\027\274\003\236\3109&Y<<\022\237N=\3110y\273\242\351\002:l\240\004\273\036\205L\273\332\242%\273^\331\265\272@d\032\275\206\272\236\274\230\205&=\204\372\240<\374\223P<\326gv\273\203,\256;So9<K\257\177<\256\202\257\273\233)\333\273Yq`<\351\355\020\273t\276\030<|\017\204<\t\211=\274\312&\257<\031\036\307;\373F\262;Sa\024<x\332$\273IBd\272\331\003\214\274\315\223\3469\234D%;\262\\\206<\364\333G\273_\267\202\273\023\361;:\013\356\177\273\345@\201\273\022Cc\273\237D\313;\2743\351\274\251n$<bPb<w\rD<o\370\334\273\177\240\210;\025\310.<\247\333\016\276\225\177\013\273q\254$=[\357V=\250\311\014\275\311\275\211=\201\272r\276\t\353\r\275\364\271\324;\264\275)=\357\360\206\274\362\013\034<[\372\000\274\000\3048=\373\357\340:\014\017\t\274\034\275\267<\001\265Y=v\245w\274\024p\214;yd\233\274\354-\360\274b\030\354\274]\261\311\274Cg\210=\016\312-:\206V\006>\256\0102=\361\326\026=\364\tN\270\227\017i<\310 \371\270K\340O=\271C\217\274y\213\201=\241\304\223=d\2074\275P\300y\2757Y\325=\255\262\272<\024\234\240\275\306y\031>n\\\336<\326\r\275\274\350\361\300<\032ZC>\256b\005=\306TF\275\356\340\023=\023Z\231=d\310\211;\211\302\357<\037\315\202\274^\032\013=v\240M=\277\203O;\326\030\267<\332V\026\276\3052r\274$\355l=ml\373<I\331\004\274\316\265q:\265&\357\274n\375\002>|Z\316\273\266P~;?\221\317<\017C\006\275\220 M\2755N,=gRK\275VD\t<\305\245\202;\305\033\206\274Q\002\235<\317l2\274\250\321\237=g\245?\273>\342\025\274:W>=\306;\304<;\231`\274\307z\020<;\214\244\274=\252\271\274\236\266\353\274\326{\233\274\nj\027\275k\225\223\275\207\364\003>\253}`\275\261\302\004\274F\375z\275(\201\237\273\222\'\037\275\266\303\370=\347\226\013\275R>4=\246\254\201=\0361.\275\3034\234=\264\256\311=1x\213\275\310\347\200<[HK=\344\241.\274O\004f=9}\r\275\366\023y=\207\2441\275N\3547\274\264\264`=]\356/\275]\343\212\274vsP9/na\274\335p\004\275\335\001\025\275\027\313[\275\206R\235=\360\322\001\275\223\325\241=;\224\213=\372H\265<\271\214\0269\210\377\2009w&e\271* o\274\016\220\000\270\001\0161\273d\004\226\271\302\267\371\271\353^69\206\374\316:1:!\273\363\263\3478/\223\253\271\0370\205:\320\003F\271\322\221\177\267\"\t>\273\013KG\272\026\332\2548xG:\270?\275.\272\202\356\0139\312\240Z9\301\325\25693]Q\271u\017\275\2714N\"7v\"\2328\340\306\371\271 \n{\274\034\354\3429\271n1\273\320\321\310\272\022ZL\273\004oc<\014\302\034<\\ _\270\377\220\251<d9\227;\242\314}:B\312\236<Z\305\020=\361\272\254\272mMo\274\326\313\342<\004 \370;\265\336\2239\273\264\270:\245\333\321\274\032\331\276\273\370\315u;\031\030\033\274\236\026\336<\364h$7\243Z\3638;\\\230;\006\326r\271\326\345\240\270\336c\030;l\303&\275\367\305\203\274\371\225a<\021\256\347<\t\336U\272\006SH9\t\363\021:Vb(\272\025\n\004\273\367\000\2758\366\221\017\273\361sp\272\020\260w\271\014{\t;c\235\304;\345\2001\273\200\23309\024\362\200\2722\351\230:\370\010\260\271\033X[7\332\312\201:Hi\233\2727p\35086\230\n\271\016_\353\273\277JG9\334\335\2219\205Oa9\260?\'\271*\370.\271\261\231)\270\036\254\205\274\301-\265\272\2318\237\271/\t\261\273.\ta\273|\370\022\272\351Ya:\335\230\325\272\265\236\":\246\251}8!E\372\270\323\\\026\270\346m\022\272\365\320c\272\365`\350:\036h\267\273\2251\3369\274\037N;a\336\321:\"\231\t\274\324v\367\271o\374\223\272\024\273\'\273Yu\3508\r\261\306\273\227<\010\272n\010\0039L\346\315\271\004\377w9\254\332\260\271\266Q\202\271\315\"z\272\230\035V\272$0i\272z\312\235\267\030\254\3278\330\351\266\273*ti\271TV\206;_\303\314\273\340\277s\274\211\332];^\317h\2749<\201\274\237\250\312\271\024\2572\274\301N\256\274\226x\245\273\210\326\244\271\321f\356\274\311\220\311:x>\330\272H\376\210\272v>\200<\213\204\213\273\004X\2269\367]\001\271M%h;\246U.<\222\344E:s\263\202\273\322\307\301;\301a\201;\355\326\\;U\017 \274\334\333\341\273\315\333\364\275\021\3750\274\3152\223\274\217lM:x\327<\271\021-\000<L\016\312\274\027\000\247\273\024KE<<.U\274\207h\357\272\313w\000\274\355\322\020<\202\240!\274\232<\254:]\307\n==\273h<\021\032\200;\004\265\t\273\262QW\274\335\356Z<\006\316;\274\003S\262\275LNT=\037\'\260\273\330\341\242\2705\003\210<\234>\350:\2127k:\375\305\275:\205T\"=\270\242\005\275\3372[<\2155\"=6\374\023\274\000?=:\330\335S:m\340\327\2735\313\202\275\345D\204;\037\205\030\275\271\261\333\274\0046\224:\356\351\036\275\021\204\005\274\266%\007\2744\350x\273:\240\312\274\206f\n\273h:\246\273\326{\276\272\210\250\016=\'w\204\273x\023\3469/\245Z\274v^\022\275\230\325G<\005\242\231:\360&\206\273\301:\321;\337D\260;hi\035;\tXl\274An\217\274\334\270\267\275\033J\207\274\216r\272\274_3\016;\375*}\273\201\277\352\274\006\316o\274\352\346\351:d!3\274\375\333\214\274\372;\0109&Q\034\275\234\374z\273O\271q\274e\272\332\274\243\330\223\274\344\025\\\272\261\277\215\275\364\017\034:\006\316p\273$\r\340\273^\370\3559\342\"\314\274~Z\006\275\204\027\'<g\364/;<\214{\273`\213\374;\312\244\334;\230\2139;\211o\306\274\332I\262\274\036\217d\274:\247*\274\346\340#\275\326\271\021\273\364!\004;\372\013\232\272X\014\000=T\260\346\2719F+9)`\257<\034\262Q\274o\273\326<\300V\372\274\t\367\t\2732{\326;\177\347\326<\004)\262\271.YO;\236\274@\272_\032u;\235.\250;Z\267\337\272\216\227Q<^6\004<0\306\375\273\345\207\3709\264]\210\272#\235(\274!9+\274z\322.\274\032\007\333<\03286<\311\227\241\274Q\303\022=\036\030q:\240\337~:}\360\322\274\307\333\253\274\017\367\n\276\335\2574\274*\242~\275\347S\034>\277\317\270\274Jb\372\2748\245\233=0>Y<s\325h\275G\271\345=\014\273\274;\213\250\367\273\263\346\233<\256\230\n>\255\016P<DK\223<H\0178\274\322m\310\272A<\005<Z\373z<\3148\313;b+\302<\035\301\036=(\2574\272\362\3766\275\237^\317=\337$\341\274\0045A=X\317\213<\234\346&\273+\224\203;\0018\272\273\214\031;=\032>`\272\212\262\314<\3002g\274\001.P\274\266\2703<\026L\020=\304m[\273\003h\026<\262\232\365\271\344P\003;\017\200\377;\364\025\022\273\2362\014\275\002\373@9\327\367\322\272o\017\355<\253\345[=\233\262\024\274(\377\026;Q\264g\273\013\273\n\274SxM\274\207\276\034\274\003\351R\274\020O\215;\355\311J=Z\264\354\273\033;N;\230\302\211\274\204!\211<o\223\207\274\331\237-=\030u\241\274\354\241\242<\204>\346<w,\230\274\236\327I==\247U=RC\354\272\352\005\333<\t\006\322<b\304i:\246\373\235<\271U\200\274.\253\253<:\245\215\274U\316\031\273<r\333<s\212}=\034~\001\274\307_\021\275\234*\223:%\261@\274\211,\213\274\324\331\216\274\277\341\026=\0237\n<\3252>=\366v =Ex\362;0\007\216\273\356hB\274\245h\345\272\345\250\007=\307I\350\271\200us=M\267\n=\221\014G\274\3518 =\211\337b\274\0277\027\275\334oI\273O\324\375<\231o\250\274fsd;z\034\301\273/\344\226=9\027\362;3\307\337\273\014kl<\316w\r=\022\264\024\274t\270\275\271u\323\204\274\242\245\256\274Z\375\244\274!U\322\273\r\3664=\253\006~<\\\307I\275\207\266Q=^\322\274\274\034\220\026<\244\240\321:b\364\201=FH\340\275\355\220%\274\352e\212=T\r\335\275mz\252\2758r\330\275\201\rb\275\277#\037\272L\005E</\245W>\274W\233=\367,\017\274\370\362\217<V\363_=\020\200\364\267\240g\314;\216\032\257=+\000\2318Q\222x\273\2416\263;~\203\207\2744\367\316<7\2402=\237\0063\274@LT\274\352Q\243=\273J&\276k\223Y>\000\210Z<\233A\223\273b\311\224\274\025\337\005\274\"(\223\275K\003>\273/e4=A\364)=5\340\'\274\362\017\267=\020\207\022>\333\256E\275\320K\357\273\256\376\375<\216`\230\274&\341!<\324:\350\273\320\3244>NS-;\216\246\000\274\362\377\367<\236B\324\271\337\321%\274h\315#\272\240j\221\274\260`\217\274\303\232\261\274\232(\264\273\221@i<h\215P<\206^-=\335 B<P\316\300\27448\246\274\264!/\275X\376\315\274A\'\254;\207I\372\274\372\364\272<50\325<\034\213m\274\264ub=\270\371z=|3\245\275\025\313\001\275\323\276\317<u2\232\274\360\032t\274W\234\351\274\304\257\203=+\242>\274\320Z\375\273\035\371\031=|q\215=\341\344\030\274\346\363\'\275.\205\207\274\360/\313\274F:\344\274\236\337I\274729=%\266\300<u\204K=\261}-=Je\242\274a\022\017:K\335\324:\346\021\206\272\237w\351\274;1|:oX\334\274:\036\223\273z\211!:\"\001Y\273\304\260O;\006\222W\273\366\0160\272\377b\360\273-\301\3619\241hd\272e\027\213\270\237\r\220:\034\020\252\272\000\237\2609\226m\3427\366\211R:K\257\022;\024\200\1778\362\346\340\272\021\000\026;\376$\363:\327\020%:\271\2547\273\247m.\273\261\377\033\275\213\231\027\272\337\277j\272\200\373w9\226\230M;f\254\336<\004\203-=\253\232\017\272\013hK\274NX6\275e}L\274\037\225\372\273\271\3061\274h\332K\273\263\376\317\273\333z@=\356\307\227<\220`\261:o\355&;\227\327Q\275SfF\272\276\277\325\273W$6\274qf\010=\237\250,\273\253\024\2207\260\205\220<\270\024\271:\354\3040;\203\342:\273M\214 =\300\316\333;+8\032=\200M\021\274j\023\023\273\260\034\031:\346\225a;\265$\277\272\362$\021\274\016\001t:A\264j\274\242>*\274\233\261\024:\023\252\320\273\002\320\"<\330H\236\273?\223\203\272\320\032\003\274\306<\265\272\034\333\315\272\306\304\0178 \346m\274\024\273\321\272\006\364\2769\274>\004\273\343\r\300\273\272\241F;\177 \0139\267\314\334\272\304\330\035;\300\222\357:9\213\3709\272\343\201\274\266\205\222:}E@\274L\222?;~\251\203\272\354\314\3779\200\3138;x\032P\273\210\'W:\301B\337\271\277\301#\273\013\000&\273\031\035F:\01095\274q,$;\340.\023\274\200G\264\273\251\347\021\274\303v\304\272O\314J\274 \354\3248\346jc\273\303K\243\273\226\261\3049Li8\272\236\222\343\273?\366\017;\342\3574\272X\242\317\272\261\252E;>\023\026;\202au:\322\267\326\273\255\024\035<\322_\277\273\371cR:\360\356\005\273\372\245)\273mn6\274\207\025D\272\374\355\236<\014wy\273A0\212\275\311\202\203<\006\346\367\272\222\274\025=^\001,>.\2233\274\221~-\273\317\242\245<\376\323\304\273 /\222\267\227\352P\273\314\2460=\021\215}:\266\214$\273\014\000Y;\030\215p<\374~\017\273\225\321r\272\254\220.\274\337\375\004\274\365\010\342\273\233\006\240\273G4\204;\t\245\035<_\317\334\275\227\020\251<F\342\t\275\234\024\271;\207V6;PY\267\274R\323\017\276\267\351O:_\255\345\2758=\370\275\032\277\n\275CK\337\272\205\220E\276\207\364v;\305\376\r\274\201\024.=,\206\233=D\352H\271\250\017\213;\224\277\265<[8\010\2756\324\252\274\370\330\306<.\022_>\2018\262;\272>!;\342\210I;\327\234$<Sy\300<\001\312\275;$\365$<m\376\356\274\263\217\026\276\023\355\262\275j]\314\273I>\"\273\304\313\213\274w\377\247\273\260\355\"\275<\252\207\273\320a\355\275\2751\262=g\360\336\272\205\356\024>\332\'0>\246\373P\274aN\251\273\247\232\333<\276\037\320\273%\013\2479N\246M\273p\307\333=\2463T\273\031\350^\273\321\214f;uv\373;`\3411\273\334\233\240\272XF9\274\262)\023\274\032\251\313\273o\302\231\273\016zF\272\210HD=E\214\346;S\221\017\274\335t%\275|\334\355\273W\327)\275\036\037q\275\336\2204\273\327H\205\274$\340L\275al\256;u\250 \273\006\3438=0\312<=\363\347\366\274>\032\327\274\353J^<bj\207\271\\\314J\275\036\235,\274~3\027=\222\355@\274\331.;\273O+\002\275\335\335\314\274\347\316\032\273\020\211 \275mv+\274\266\336;\274\037x\027\274 \205\t\274\305b\017\274\307\251\210=:\377\230<*\342\207<9\340C\275\034x\225\272\244\212\250\273\312\240#\274G\027\000\277\333\242\003\272\324\354\336\274\334\030\227<<[\357;\300\253\257\274\2524\330\275\202\265N<\022\223\222\273\363\211\250<\000\037\235<~7y;\254O6\272<\336\221\275t\005o;\000\334\211\272:Vv<i;7\274\342.\305\272x|d:\2622,<U\027\202<\275\214\220<\3145\373:\272\234\002<+\025\315\272\205~\206\275\332\231\303<Y\273P=\254\022\223<x\3630=wC\347\275\346j\037>\200|\303\273cs1=\3012\274\275o}\261=4\272)\276#\'\365\2738zf<\310\251\207<K\206)\276\356\247\340\275\323\227\234\273I\"\242\274Q\332\322\275AC \275%\240\000=\272\255K=\r\264%\276Qi\235\274\351\031\377;\251\303\213=GY\024\275\275\177-\275\032\355j\275\2762\267\2759\234O>\242\307\">T\321\020\275\370\023J=3\346\231\272_h\252\273^\244\020\274\373\377\227=\270\212\2029\201\033P\274w\2530=\3147\030;DU\204\275\257@\360\274$~\252<BP&\274-\235`=)\357\031=vP\262;;\242\272\272kh^\276\315#M;\241\013\213\272\233VN=\000\037\">fv\305\272\334n\304:\037\313\004<\204\337\002<\031X\035<\255\211\t;\240\022\212\275\201px<\024\036o\275\262\310!>\343cn=\323\036>\273\356\353U\270\244\004\303<;YD;\245/ \273\206\350\303\274\3765\\<\343\025\010<\334P\033=\350\336\331<C00=\021JK\275\003\233w;\006.\024=\330]\205=\333\344\203:C$\026\275\241\323\301<b\363+\273b(#=O\331\251=\031\016\t\273~\257\222\274\357\360><b\347\215<\271\205\227<\3501\3269\020 \003=x\340\314==s\r<\245\366\244<\366\272|=A\204\02790\025R:\001\337\230:\355\013\251<\333Y\3479\0230<=N\324\375\272<#K:{`\360\272LHi\275>\343\t;0\351\020:\212\322-\273?\037\2439?\243\242\271\332\337\2038\033\344\271\273\250\021\3348\007I\0348\370\230v\2703\213\255:\271*V:\223FY\270L_\263\271\243\017\001;\356\333\375:!\307q9%\266\354\272~\352 \271\242\005\'=\027\'-\272\300\315\033:\316g\3519(\352z;\225\360\025\274\324 \252;\227PY\270\204\210\232=\317\206\204\275\305\356\030\274\004\205\204\275\273\202\361<\036\245\210:\246\240H=\270\300\022\273i\206\240\2744\367\t:)\350\254\273\256\315\322<\212\310\210;\310\016\t;\356F\336<3fF\274;\310\377\272F\375\206\270\311\205\216\274\3068}:\375&\3009\314V\263\272\331\355\222=o2\235;`\247\335\275g\365d\275&\0161\272c\243L9\366\034\030;(\2408;W\301\350:\273%\021:\236\233\032=\233\371\037<c\013\013:[\352\n\274\221\026\234\274\332\2639;b\350B:\214\367\376\273\314\220\2659=\244\020\272\234v\2568|\006\007\275\274\205\3159L\026\2258\271s\312\271\274\033!<Y\343\217:\247\262\016\270\351\255\233\271\365\017\004;\211.\312:?\330&9\231-^=\355\226\2769b\217\276\273/\337#=/\354\257:{\233\2329\374\005\224;\221\237v<\365\210\351\272\307;\3009\224Y&;O9\037\2736\241x:m{t\273\252\250\002\273\22485<`\245\000\271\003\277\305\272\373b\3469N\367\322;T\310\2019\272\362\343\273\325_\177;\255=\0249\374 \201<0\264\035<\000lP:7\300\017\272)P\014\272j\233/;\260a\275:\363\312\2779~\037\377\272\323\032G\274\003\240;\273\226\263B\272\256\001\213;\014\337\226\272\350\001\";\003|\211\275\245\247\202\276j\304\201\273\327\306\332\275\222\277\221<!\025d\274>\004\311\273dV\265>\007\035\210\274\250P\345\273\006\352\024\2756\200\007<\017\374l;\326\017\345\272\016\177\350\274\227R\375\272\022\215\231\273#\251\247<\026@\354<e|\201;u+\333:\022\264\315<tz\016\271R\374f\273v\t\371\273\344\227\214\271HH\316\274\266ms\273\343-\311<\005\2648\275\241\323\200\274\005\356\330\274R\007\250\274Z\337b=\34767;\327\276\241\275rh\212<y9\345\274\365\255\025>\215_\226\276cG\366\273\277\214i\274*\234h\275a|\270=m\362\245\273\202\321\361\273\350\224\336\275C\265#>\376\3327<\000\220\203=7\302\310=|\310\242<c<\201<\010*\346\267q\247\250\274%\265?\272\225\026Z<\240\324}>\331\241b\2751\231\375<\356\242Q\276n\204\026\272\346_\316\272\361\372\221;\365\206\266\275iM\022=\265H\334\273\305pk\275!G\314<{^\210\274&kG<\320\315/\275\353\021C\274\376\342\'\274b\356\221\274@\327t<\233j\332;\006\001\310\272\\\006\262<;\346\350;D\020\245\273g\357q=_Fh\275v$\226;L\306S;\3763\264<\374\021\032<\250\0017;\305\274\313\273\350\013\256=D\0075\275\2716 \273\261)<=\261\255Q\2753j\372\273\007\300t<\314\304\274\275\0217B\274B$\267\273\231\241\010=\365\316\243=),\275\274\2225\330;\246\241^\274\"\233B<\3649\014\275\334\022I\274B\032\025;>O\022=\336\006<\273\371\353[\274\315Q\300\274p\022\326\273\361p\032=V\370\177=0\324a;\350Q#\275$\026\277<\201\276B:_=\332\273\214\330\200\274]7\267<\307\323\216\2750\023\233<i7D=\224\376\220\275\306\276H;\"\321\264;xX\221:\206Q(=\227\272\300;\033\276\010\275\302.Z\274i[\220<m\350&\274\3312\326\275t\362B<\302\344\355;4f\300\274\026#\200=;\'\226:_\250\345;\342\007\277\275\253iI;\323\202\364;\361\335\324;%I\267\274\320\220\016;mn\276\272A\026\263<\323X\005<\302:\021<\250\3503\273E\001\204\274\260B^=\326R\022\276\177\t\030\275\2578\023=\375\022\340;\377\263~\273e\226\002<\266\215Z=\310\316$;\322&P\275\270:\314\273@\225\200\275U\207\033>\266\235\t>3T\031\273\034\337\010=\315\027\357>\234(\227=\341\275\001\273r\304\221;\314\225\273<\031.*\275T\370{<\272ph=k\005y=\242\016O\274\330\343\037:\314\366\204\274{M\336;n\242\331:\226\221\331:\253\216\224=\003\327\371\275\317\333\251<\021\310\326\275\235\224\312; \313;;7O:<\376\270\227;p\022!;\325\271.<\362\340L\275\232ja=\202<h<Pd\014\274m\230\232\275.U\356<\355\3559<\237\350\355\275\031k\231=\362\235L;\001\025\273;\332\003\353\275X;\257;\220\300\377;\322\"\016=@ \211\275\362\317\256:\2501\271\272Ag\232<X\332\254;8\'_;\204\227,\273\314wu=\214.0>\304\244\017\276-\351\036\275\016O\022=!\002H<\325\342\375<\306\244\331:\325\217\221;\'@%=\347\344\241\274\214\205}\272H\020\301<4q<\274\204\352\366\274\363\2046=u!\251<\245\035\276=\001\'\205=e\330\217=m\033/<hn\332\2758`\207<\301u\017<\255\251\321<\330\264Y\275\337\337-;\200\203(=\003\215\334<\217\214\033<\201%\021<\000\350\306\272\305w\262\274#V\022>\374\367\223\275b\"f\275\271$\322<\206\355F\272\274\272\235:de\344:\341\353\371\275B\327\200\270\021\320\266\275_6\030<l?<\273:\336&<&\016\350:\323\343\340\273\316\324\201;/\010p<@|\326;\311I\372:#\177\0219\240$\326\274=mE:\225\022\331\271N\033\362;;g\205\273P\210\240\273:\332\t9TS7;x\014H\273\311\306\003\273\274\025\234\273`\036\000<\032i\246;\013\316\232\275y\361R<\236\317\350:\336\2273\273\006\332\202\274\214\357\210<\247T&\274\373\251\244\273l\223\022\274\027,\206=\304\234\217\274\032\212\261=O\270|=\010\020h;\354\334)\275]\253.=\306]M<\223\031A\273? \335;\224\303\3708\354\223(\273`\355G;DLG=\034\035\003>\031\345\026<\210\312\r<\245\211\320<\307\255\331;\177t\251<7\005=\273\313\323u=W\225s=/\301\225\275;\354>\271\201\021+<y\265Y\272\347\210U;||\037\270pj\244<\250c&:(\2232\274\252\332\351;8\003\027\273\340p\260<S\322\230<=\262\332\273\245\251\313;\366\014^\272`\200L<WUr;vW\027\271ah\'\275\203\336<\273&;\230\271\255p\330<h*\267<n\326\265\273\227\304/:\177\2520:\264\221N\273ii\021\2731\201\210\273\253%<\274\215+5<sM4=@\355y\271\312|\211;\2752\003\274\261\n\253<1\227\r;\004\236\235<\232O\302\273U\n\002:F\203y<\331\256j\273.\211\243<\350E\364<\244\342\314\273\375^\271<\352A\213<u\306\034<P\245!<\303\302\332\273\344\2317\274\033\303z\274M\325\347\271?\267i<\231!\260<Q^\227\273\203\177\230\274Y\"\230;8\226\201\273\363Wt\273\364\201\027\274\320\227u<fV\320<\374\302\264<\266\372\210<\013\366\013<\034\254O;o\255\032;\371\206I\274a\013\242\275o(G;\272o\231\275!\030\322\274\225\270\225;\n\274\271\2743\264\"=\000\236\370\272j\377\307\272\217X\004\275:K\n<Q\211\211\273B#\267:\200\2160\274\030!\243\273i\242\207:\226\222w\272\216}\367;|\251\014<\200\252\02091\220I;\366mO<\307\267!<@\004\\;\336\275\231\274\346@\306\273\341V&\276\250w]\274Sz\021\274\270\177\250;*\253\207<\031A\224<\001|\253\274%\362\223:6*J\274\272\354}\275\245\"V\274!\270J\275sW\223<\'\376\023\274\277\035<;\023\002\274=\221\333\021=\177\\\322;u\372\321;\323\035\n\275\357y\231<p\376\017\274tX\340\272\032\366\215\274\313Qe<\302\224\3748\272\035h=\263\243\350;\320cv;!n\203\274jO\032=D\232\210\275:|\025=\207?k=\250\350E\274[\350W;\316\014\021;\030!\203\274o\365\312\275\276\247a;(\246\236\275\272\n\245\274\352\353a;7\330_\275\315@\237< T\225\273]\261\\\273i\357\t<\363\226\202;\2440\372\273\214\177\271: r\322\274\322\323\213\273\365c\361:\231Ak\274y\217\036\275\330\244#<|\232\3319ZWi;G\037E<\243\341\032<\242J ;\342\357_\275\360\233v<:\271\322\275d\205\332\274q\356\036\274\256\031t;\314\214\267;\014Q\314\274;B\345\274\220\244n;\003\235\364\274\260\003?\274\255\241\264;\215\0229\275\004\264\215\273\316S\352\273\324\255\235\2729\\\377\274\200\017\027<urj\275T#\217;\316\335\013\275\212\305\025\273\220#4;4;\251\274\2210,\275l\034\023<d(\201;\270\367S;\254I\200<QYA<\213\374\257;\234\3003\275\337\251c=\234\210\003\275\254\275w\274\253d;\274\330]x;H\215U<\257\350\\\274\342\271\375=\n%\225;2\034Q\275\262T\035\275\230\235`\273E\226\363\274\324\3138>\3541)\274\267#A<H\305\246\274T\316F=\313h\206\272C\310\006<\203O\246\275e\241\002\273\037\223\326;\340>3<\244S2\275\316s\241:\264<\272\272\327T\r=\216!\247:\203\321\\;\211x\347;}0/\275\353\325\244<0h\334<\341\032{\275\031>\256<.\272\274\272\342\213C\274\272`\212<x\303\253=j<}\273\347D\030\275\250G\257\275\202\202\251<k\002\265=\001\306\310\275\247\0213\274\327xZ9\020\206\256;\376)\203\275\341\202Z;\332\346G:m\221\234\275g\001\021=k\0201\275\023\'\345=\314\342s\275\357\014K=\306\260\034<)\331\237\275\324q\032\275\'\347S\275\001\367\036\274\335\224\352=b\271\351<\311\264\322\274\310\330\341=F\2344<\254\235m;\036\t\306<;\001F\274\344\364x\275\253\311\024<\nK\317=\002\367\327\274\276j\230\272\320oZ\274\325\261\037\2762\027\231;\230\336\231<\211\247\016\275c\322e=\026\300\355\272\2479\366;\215\366l\275\322~\265:\031b\350;\302\364y<\365(\230\275\"y\030:\351\2677:\355i\005=bW\354:\347}\000<\216C\276;\027\357\246\274p\375j=\332\206\357;\257\364\330\275\333\364\347<\342\301\202<I\316k=\002\352\016=sY!\275\241U\'=D4\206<\002\001\305\274\264tq\273F\273Q\275\3353*\275\272\251\304<eB\210=\177O\310<rw3=\322\341\323\273tR\234<\210\311\231\275\007\337r<\236\177\003<&\\Y=\205,\035=\323U\305:V\004\024=\220\304\034=\0058I:X\210\017<\327\257\370;Y\226M\275\3559\000>-#\312\274\2332\226\275\257\354\037<\037\036\213\272\245\037\301\273X\3244\273n\201\017>V\231\361\272\241\203\226=\356\272\021<\346\005l8\212T\302;\224\206\342<\225\033\301\273`\3344\273<\266\323;\005\036\036\274\262\357\23494w(\272\003c\211=\027R\007:\014\300^\272\010 \t\271\005.\342:\231\375e\273#\220\357\271\036v\020\274\262\377o\273\205\3726\273lbS\272\252\367\237;m{\020\273h{2=\374\306\274;5\371\272\273\366\321\\;X\333\026\273\002\300\";\375^|\273a@\206:l3\363\274\320\2227\274\333O\331;\233\2456\275\214<\237\275\001]G\273n\030\353\274\t!\242\274\314\n2;\036+\212\271\304,\364\272\272\274\257\272\256\370\206<\032S\032:\356\257\320\275p\245\212<X\307\017\274\252Z&\271.\221\352:s\260\007\273KTR\272\222\300c<\2125\370<*8\320<8\002\021=\273\374\020\275\371\377\273:\323\314\213\272\314\246&\274Q\230\240\273\037\317\272<I\000\000\273\034\026\317<\274p\266<z\344\275\271\331\333\306\273l,L<\304\306\032\274mR\201\273\3736\233;\336P\240\274\315\324\3508\232\372x\272\311d\256=\377<\242\271\033\212\230\272jw\014\274\212\264\203\273\212g\227\273\005\277A\272\221\255\r\274\025mp\273\335MK\273|\222S\2728\277\010=\261B\261\274\000+\302\274\357\351\256<\341\263\'\274\000F\264\272\007M\246\274\337\325\007\275\353\321\257;F\354\204\273\245g\234;\323Y><,\2560\271\303\257\201<\276?\036:\315>\216\274+\001\252\274\203\271\323\273mo\235\274\366\274\267\273\033\255o\272\365\315P=Y6\020\273h+\271\272w%\204\274!\300E\273\315E_\273\205\304\215\273\177Z\000\274\200\257\233\273\230\211\215\273\357\251?\273\000\237\213<\271\206O\275\374|\024\273&\204\337;\007\251\303\274\325dz;\323P7\272\243\214\276\273\253\260\201=\306M\323\271\261\000;=I\003\023\275\320_\247<\256~\017\275\375n\331<\006A\370;]U\306\273\327\210\373\2745\226\303;0\327\225\273(R\215;\026LU\2743\235\n\273*\266b;\313I\200\274\245\005\264\273:U,<\343~\244\272^j\360;\240#\205<\001C\204<\233\277\201<\267\014\007\275\311t\273\273\253\362m=\242^H\275\202\270\016;\006\330l;\234@\353<\n\016\327\275\004\334\267\275M\326\225<\346^\375\275\322\002\240=\217\346\334<\r\356\001\275\225\336\005\275\n\2765\274z_>=]\362\203\275~-\014\274\301s3<4\367\250\274\254z\301=\023z\014\273O\265\255\273\247\301H\274\360n\036>\372@N\273\320\265\244\274\242\352\320\274 n\304\274\003K%\275#n\235\2733\232\260\275a~\300\275\004\237\354\275\241\362o=\341!\256\274\377\'\221;t\261\307\272\\-\367\272\240\260\214\275\004\314\274:\t\317(\275\303\263\212\274;P\242<\216?\352\274N\246B\275\205DD<\231\200\376\273\352I\232;\251\3702;7\2768\274\356\021\314;j\350\022=+\036\321;_\"c;B\007&\275D&)\275\375\273;<_+\201\273k1/<\270\265T<Z\030\217<\007\177g<\026\334e<\024\367|;\344\302\206\275\330>\244\274\000*\312\272\0162\265<,\260\252\273~d\201\273\370A_\275ZJ\336<\324\303\332\274\t\3160\275\207\246\345<\340Ro\275=T\205\275\365\321\225<\373\234~\2742y\013\275N$\200;\347\024\212\274\024\276\247<L\356\r\275\225\235\013=\033\033\205;\033}\341\274J:v\275\320\3252<\217\2664=4\250\322;\271l\233<\037\024\301<\374\342\305<\203&D\275\004\210\3009f\004r\275\315\014i\275P\250`\273\2162\377\271\022\203\363\272\377\006S;\"\353 =\332\247[\272\304\330\333<\025\253\242;M\320W\272\373#\201;?\301*<\342\211#:\245\216\343906\302;<\276\245\272\375\263&: \252\344\270\321\376\200;\354\351w8\014T\202\271?7\002\272\023\003\035\273\020\325o\2730\217o6\005V\234\271W+\016\273\024>\334\272\232\026l\272{\331T;\250\021\276\271E\350\265<\375m\300:\347\233\367\272U\351\233\272&\311\270\273(\325\255\275\022\"2\275?\237\203\271\336\035\332<Bw#<S\0367<J$,9\014\321\305\273\020\303\320:\325S\005\274\221f\252;\375f\212\274\371\333~\272\370\211E\272\256Q\224\274\337\323\271\273\250d08\357\3349\274\026v\026\274/\204\025:\2066\0238Swo\274@\000\265\272<\256\300\272\360<\323;3\362\026\275s=\253;*\346A\273[\326\236\272\361\022\225:qg\004\272\310Fc\273\377\211\205;\320\322(<k8+\2721\213\210<\214`W<\023\263\037\2721\252\351\273M\3431\273\343*\266:\353R5:}\017c;0\321\2646j%\204:J\343\246\2710L\303<1nY\272p$\210\271d\304\243:\362$\205\274I\013\245\273\374\354\025\267\302O\331\27117\n\273\"\227\345\2725\350C\2727Bf<wt\034\274\373V\r<u\311?;\234=#\273Qg\360\271W\215u\273D\343\271;7\375\364:\361\2504:A\346z;4O:;\204\333n\2727\020\244;\310\226\305\271\027q\341:\372\n+;\205=\345;\327\352O\272\252}$;\322\203\212\271\214\252\352;\350\341\211\272o/\225\271\224\007\246\273\242\t\356\273\247\257v\273\371\026U;Vu\210\271\324\0200\273\220\211)\273\331\016\350\272\225~\336;\022\337\261\274X\275\222;\362u\034:A!c\273\234f\2219\332\013\305<\016\003\243<7\033\240>\252\300\356\267\026\222\020\274K\000\333;\031<r\273\'\222,\274A<g\276\246\275\007=.\233r<J7\206\273\302\235\023\275\271e\265:\333\224\023<\350)\031\274\013\252)<\260\376?;\271z\025\274J\262\255\274\351\271\254\273\350\230\347\267-\255\001\274\270:\347\273\324\3157\274$\264\237\272\343\361\253<\n\367\233<\\\241\341<<H>;\217u\214=\336(\026;qA8\275\'\rO\275\201/\006\276\227\347\225;\361\\\324<\357Z\222\275\367\245M\275m\362\207=\342!\003>\3519\303<\250\344K\272AP\336=\303<\357\274\252\322i\273z\352\252<J\177\301=^D8=\302tj\273Uh\317\274\036\253R>\000\330U<|j\003\274\254|\201\274j\351s=&\265~=Zb\035\273\305F\331\275\2618\004\276a\254\246=w\317\013\275C\034\216<\346g\2329\352z\016=\234U\344<\316\232\\\274,\255~:v\203N<\204\240\215\275\322\327\320\272\253N\345\275\314\306K\275k\272\326<xi\300<\307\227\356\2759\3258\275\016\301\230;\001B\020<\272\373\236=\245\351\000<\264\035b;\373\202$\275G]}\273\257\366\324\273\000\333z\272\017\246\304\273HW\351\273\340rP\274r\243\355\272u\327\242\274\334\237\231\274\277g*=\331\217\353\274C9\223=b\205\004\273\264|\223=\320\007\206<w\023\002=\026A\271;V\304F<[\3746<\320,\252\273S\312\246<6^m\274\314\234\207<\354>\301=\303\3545<^4-\275\202\343\222=I\204&;\t\221\177\274l\302\307;\033\353z;!\034\355\273\340J\240<\206N}\273\324WG<\323p\202\273\355  \274M:\201\274\333\213\204;\352\340\346\2713V\020\275\005\342\236\273U\020U;\263\365\221=w\3662\272\333:\'\273\240O&\273\t\355\251\275\340\231K\272h*@\275{%\331;\025\010L\273[\326\007<\360\004\374<\273\336H\274=\367\020\273\337g8:&\213\330\273~\364\013:@\"\275\272\210\243\274<ik-\273\332\"\262\272\037\247\\;\333\325\205;\205\177\345\272\366\326\3239\331P\246\273\370\255\251\273X\311\221\273\355\254)\273\033z\233;\357\316-\273\\\323\'\275\035\320A<\332\255\003\273K\200;\273!F\213\273\351\014@=\311\354\210\275\243aX\270]\350\273=\323\004\274;\020\n\366\273H\020\205=\\1\240\274\330\'\375\273\004\034\266\274\273\007\240\275\223\325\252<>q\'\272\3113\300;\0026~\275;\2076\273\352\216\240\273\336])\274\202H\271\275#sp\273\257\352\';hKU<\220\344\3367\336\301\324;F\272\025;\365\276\306=\277\227\252\273\323\r\035=\314>\210=\2466f;\234\3766\272\214\231\213\273\2002\216\273\335\213\253<\241c\304\272s\022\207<|N\010:Nh\000\273k\200\274;\216m\263<\234\273\216\274$\274l\273\300\324R\273\223\245\030\274\311\327\210:\251l\231\272t\234\205<\326@\352\273\273\373\277\272\260\276\361;\246\351U<ul \273\375\033!:\247\247\256\273\016ai\273\314\310T\273\3165)\273\261z\275\274\306[,\274\244\246\215<a/\"<\356\2516\273\024\375\255\273\335\030\021\274\200\313\026\274>\227r<\277\241*\274Vz\017<|\220\211<\216kK\273\374>\225<\317\271y<p%\331\274\223\007h\274\267\264\226:\216\377 \274\'\233\337\272\373\207\275\273t\267\223<\220\212\324\274\266)\360\272\212\230\275\273\tF\366\272\203Q\340\272\351G\024\274\232e\243\273\360\352\266\273L\367\312\273-0\307\273\244\301\030<\303\321\025\274\366\312\250;l4\212<\210`\343\273\366\332\3008B\352\261:\344\000\2217\020\353\231\275\022D\3419\261\2369\274\304\036\r:\033\252\207:\256/5\273\005\0067<\315\361\036;\320UU:\035o\2049\237\332\224:P\255\3558x\25359\321\2201\274\316\326u9\255\325\353\270\241\357\353\271\375\017\214\273\2210\027:[\241\3558\233v\227:\317\300\347:\300\261\023;\300Sp\270\213\030\"\273-\362\010\273\335\232\334\274\002mz\272z\036\224\271\272\346\317\271\334\234\003:O\375\004<z@\326<J/\220\272\016*\334<\230@\341\274\241\227d:\257\023\271\274a\322\227;\350\263\356:V%\243;9\341\200<\321\313\025\274\004~p\271\231\236;\272\354}\337\274\226k\203:k\357\226\273\353t\341<\263<V\275\006\007\365:~Sj8\254\004\2529\251\265\353:\303S=:\026\254$\273\242\025\320<\331?\265<d\341{;i@m;\316\036\022\272\310M=9W\211\027;\212\305C9\207x\'\274Qbr:\207\371H\274~0\353;p\201\031:ysH\274\314|n<\026eN;G\212\261:\344\3671;a5\024;\336\002C9\300\nF9\265v\251\274\\\325\3329\342y,8\301\034\'\272\277\341\231;\274\002*:x\214A9\343\226\263:\013\311\300:\251\014\332:\341\3364\270[\277\003\274\r\315\022;+\207\304\273i\2112\273d\342c9\230\006\2009|\006\215;6\272\343;mh\224\273\312D\214:\200a`\273A\252\355\267?\354\226:c\000\036\273\354\274\032\271\223\204\354;\"\303\244;\030\256\014;\3026\223;i\2616\273\300ej9h\002\353\273q9\251:5|\2329l\331C;\005\364d\272\230\251\020:\276$f\272\344<H::\234\r;\274\245F;\232\345P9#\010[\273\271@o<w\375\3249\341[\271\272\t\374\367:\275\026<;Z\026\345;\002\270\336\274\210\211\237=\251T\267;\317\006\362<\310\006\023\275gJ\022;.-\026\275\014+\224=<\256,<\305\372\257\271\014h\034\275\003hf=$\261\022\273\317}\271;1\324\226\275)1\r\273\n\255\226;\234\201f;n\254\336\273\036\212C<\204\223\231\271\260\322\007=+\277><\230\233*<\250\330q<6q\325\274\032l,:\374\336\262=Y8<\275\206\202\252;s\370\240;\243a\007=J\311T\275F\"\305=\222\227\304\273\300\227\304=k=!\274W\214y=j4\\=K>\034=\204J\270\273\"\204q<\351\231\376<\200\306\347\272R\262\245;\200l\266\274\352v\014=\361\357~\274,\3272\275$\316`=\014P\271=\263\255>=\253\004$;\322\243\307\274k\014C\275\213lV\275\246\205 \275\016\372\203\275\317\\)<\360\362\276=u\267\025\275k\341\2019\316Z>;\272hn<d\r\354\274 \315p\275{\314\n<\307\035\023\275\236\243\217\274\364(\004;3^\205\274}\371\204\275\245\304\256<q\n\004;\022\300\030\273\361\n\216=\216\233\237\273B(\326;\036\334\n\275\247em;/\347\225;\221J\322\273\2041\237\274\020]\\<`\323\3669Q-\013=\200\241/<\213\262[<>Ub<!\241\351<\021\230\257;\033\231u\275Y\347\031\275\005\276\016<\200ys<P8E=%@\306<i:b\275\031\260\352<\207\234\017\275\232~>\275\013\360u;\001\346\223\275\276\027\372\274P^G=:_\232<[\265T\274?C}=\262|\314\274l\357\313<\336\205}\275\243\346\346<\371u\245;\331\325\306\274\023Ll\275\216qM<)bI<P\201\024=;Aa<\327\372\215<\347}\276<]\331\230\274\225\374\377<\225\021\032\275\014.J\2752\201P<{\352\232\273z]\';\202\340H<\264U\250=`\014\205\272\240%\201\275\312sJ=zR*\274\207\230#=\232\035@=4\213x\273\361\233\016<%\013\311<\313\332\265;F\246[;\031\3415\273C\371\370\274\007$\377\272\234\3372\273\022\202\213<\026\355,\274\306S\023\274\232I\006:\376\344\216\273\355\205\226\274\315\213\236\274\023\237\237\274#\227\004=\355\003\342;t\217\203\275\247\343\005=\020\324\275\274\312\367\240;\214\226\006\275\322$>=\246p\363=\022\006A\274@[8=\367vP=\250YS\275\204\226\203\275\252\241b\276?\257y<\355C%\274\320\356(<\240x:=\r\316\033\274\210J*<{\205\374\275\247J.\274\305\343\315<\227\300\223=\367\021\303=\332 \236<$\203\243<\204[\302\274tH\253<\333/C=\331t\201<\304\317\361=J\031\n\276\307\031\302\274\241i\254\275)Y\033<Iv\245\273\375\010c;$/Y<\031\273\314<h\217\025\273\324\377\177\275h\262J>d\347\016\274u\232\201=\272\351(>[S\230\273\3727;<L&5\274k\240:<\255\275\016<\"\031\212\273k\005\033<\332\024h\274\214\315j\273\357\n7=\206\202\243\275\366\257\024\274\032y=;\277\256\010\274n1v\274*e\242\274D\305\214\274\376H\301=\332\026\215=\2571\374<\003\003\202\273\211+\324\274\276\203\251\274H=\342;\304n\276\274\331\n\265<\374O\236\274~\353\332\274YW_=\215SE\274Vz4=\242q\245=rp\007\272\234\311\311</\323\204=Zy\374;\250V|<-\201v\274\374\373\350;\336vT\275;\262P\273hQ3\273|\205h\275\022\276\"\274\247\2100\275\t\216#\273Br\262\274\025\230\331\274\325w\355\274\200\2237=\221\016+=\2716\024=\357\254\034=e}Q\275\206\270\311\270\020\217\261;\334Q?:\264Q\200\274\370m4;\006\3736<\306\364\223\270(\347\233\273\303\311\'9\263_\211<$\361\353\272\031\177\331\272:\232\227\273\226\272F\273\252O\033:u\\\265\272\244\204W:\3667\364\272\030Z\210\270\273,\216\267\'\377\267\271\372@5;&\236\013:\202\360\3378\314s\334\273\265>\031\274\317E\3449\340H\220;\327\026w\273\204v\205<\240b\002\273\'\326N:\337\017!\271\235\301\350\272\204m\343\273\t\215\222\273\377(\201\273\300\272\027<\313q\357;\022\274\211:F\365\315;\271 \325\274\345\267\347\272y\276\367\271\022\231h\275\326\247Z\274y\r\203\272\223Hu\272!\t\323\272\033d\177\273\310\264r;W\nE\273w\347\204\274\334\345:\274\303\216^9\2313\223\273\371>\225\273l\001\316\272\250\206\031\273\340\3328<8iI\274\335y\235\275@\265\336\274\022\214\230:\021&\272\2708\"\367;\242B\327\271~\310M;\330i9;g\240F<\265\357\373\273\236z-\273\267\250k<\n\036\'\273\257\240\260\272\333=&\273\t\036\037\274K(\026\273\300\333\241:\307\352\271\272b\002\351:;d\267\272\341\030\002\271U\235:\272Xo\356\273\036\3659;M\017D:,\312u9\241\201\261\273\020\007\311\273\226b\2169q\275\202;o-\260\273<\035\202;\351\t\332\2732(l:\3576\220\270{4\377;\205\r\343\272u\307q;*yV:Z\322];\254&\317:uW\240\273\0210\243:\022|\3629\301\250$\273\305&\332\273W\231\005\272\0075\271\272W]\035;\034O1\272x\326\3179\327\324\334\272\330\224\024\270L\325\026;\3205\035\271\261K ;gn\200:\016\322\223\267\266\021\372\273\212\306\264\273\247\256\26091\244\216;eD\233\273\367D\003;\3340\311\270*\245\026;\355\n)\272\223\023\026\273\330\0010;\021\346\273\272\272:\221\272\006~%\274W\245\307;\207\004>\272\007\300\254;\376Q\204\274\024\202t9R\257_:0\370\021<\030\215\237\272\t\032a:\336\220\31180P);\213\233m:\274\006\247\271\204\355\2609\306\310\234\272\305[P\273W]\004\271mN\3619)f\"\273\214\267\360\272\267p\221\272I\337\242;\271\236\232:\314#\201\274.\334\310;\274+L99j\220\272/\302\n\274-\237\n\274k\346\266=&_\317\271\301\300;=\027^\325\274PG[\274c\327!\274\245\000K<\310\307\202;\220\017\263\274\207\3315=\003\014+:\361\314\251\272\371\026\2679\355\222\226=\262\315\223;\222\0106\272\031eF;\310\274\231=\225\317/;\270\377\3407\225w\347:\374\255\014:\357e\341;\002\276\257:\235%\t=\021\275w<\277:\254=\303q\305\274<\224%;\264\261)\272\334\240\200\273h\203\';\300T\037<(\247c\272\337\035\227<@\260[;\010\355\025\272UI,;\010(Q<\274\315\2379J\242\230::\205\2169W\r\3509K\n\303:_$\324\270]Z\221\271\223\347W9\250G\250\2718\017\253;\331\r=<\020\025\213\273\373\033:\271\251\224\2229\254g \2735\224\357\272\377Qz\272\2068\t<d\217\213\267\243\350\206<r\367\013<\207\204.9\310\202\001\2738~H\273k\251\004\274\241a\371;\211\247\223\272\222#\206;\203\251\322;S\213b\272?\205(<\375\203\346;d\307M\272\016g\273;\222\000\334;\177\034\301\271\265O\320;\364\321\376\272\302\035\251;\221\024\210\273\375&\324\271\261`\024<\204\373\242<\313+L\273\037d.\274\034EA:\003\031K\273y&1\273\325\212G\273\250,8<\025\205t\273\212F\334;\005\241\003<\227\2227\272\026\3141\272=\037\221\273\206\023\003\273\207\320F\275\341h\005\272\332o\241=#*\026<$\267\2708\177\025X;JD\3369\351\224\235\273\277\327\030\273\310\273\202;\300E\355\273\245\230j9\275\017\330\271p\343\n=\243\325W\267nS\025\272\000\3147\271\330\241\201\272\357\346;\273\246$\266\270\2334\346\273\356t\342\272H\004\217\272\017h\232\272\350+\215;\337\323\240\273#\376\203<\273n\251;\265\350\210\273\372\014\014:b]\013\272\330\357\213\275\330\034\020=\214\27259GnK=\t%\242\274\227g\211<%\2224\275b\030\314\274\302C\020\273K\020o\274\252\251\234\275\211\316\242\274\225/%\271G3>\273%\300\305\2749Y\301\273\207\314_;z\376\260\275\200p\260\275\001\224>\274\030I5\271\210\353L\274\346U\266\272\212b\351\272\375\210\013<O\311\375\274\36503=~\326\372<\217\017\177;R\226\202:\217Y1\272\353B\356\273\263x_\273\322=\005=\322 \201\272\221\352\177=~\226g<\364\216d\271\362k\246\274\261,P;\376W\334\273Dwt\273\030[\2257\367\372D\274/xU9\321\204O\272\326h\017=\310\2727\272\327X+\272t4\243\273\234\240\260<t\007k\273\351\320z\270\373\303\340\273:~\007\273#E\321\272\377C\231\272\273\002\203\274\326\200\341\274\344\365\006\274(\364\200<\255\371\355\2731\220\325\272\256T\201\274\253\321K\274\301[\315;ONd\273tW,<\026\201\324;pl+\270;F\217<N\004\346:\210\036J\274\034\014\237\274\027\303%\273\226\331Z\274s\300b\272\351p\253\272Mw\003=\244k\010\2719\022\213\272)V\034\274\261\200\213<3\0078\273\317\252\216\273\321\026\370\273\036\205\017\273\322\330\016\273H\227\204\273z\3119<\377sc\275\014\271\0319D\376\237;\030\013\212\274x\037I9\316\001\241\273\305\275\211;\367\236O<\300J.:\214\n\346\274OYl;A\207(\273>\224\224;\3561\224<\340W \273\365\304\363\272Ah`;\324\350\276\272\273\312\023:\377\213\000\271\331gF<TG\002\272\325b\250\270\276YC9L4\020\273\306\336\304\273\267s@9\331@%;]\007\230\273\314\252\223\273\313f%\272\222M\224;\356@\017:\365@\335:\333\2719;\272\241N;\0163g\272jl,:\246\240\214;7C\337<\257s\262:\257\025\240\275\253\376}=\226ot<jK@=\262\374#\275\351\203\342\272\215\004)\274\010\202\244\275\223(V:)m\211\272\3534\030\271\2160\250<\262T\266\273\257\270^;\235q\220\274\3450\253<v\230\036\273\312s-9\004k\235:\222r#\273\261\246`\273:o\2218\\3\233\275R\351\333<\373>\215=\327\311z=\371\333\371:\352\335\3308\331\201\374\273\272\327\311;\001\272\000<\367N\034\272\326\337\262\274g\202c\273\214\200\337\272\355\336\035;yHR<\267\212\023\273\221\227J\273\026\355o<\001\232V\272\327;\227: \255\202\270\246.\316<\362Ph\272\320e\033\271\375\357&;\010\354\035\273gy\355\273.\272~9n\005#;\212\331\217\273i{_\273\005\222\345\271\214\364\372\274\312\261\377:\330\202\210<Z\377\251\274:^\217;6\313\340\271&\016\032\274{\213\307;\243B\316;\374\244\255\272\272\372\365:\001\360\302;\253T<\273x\3433<s\010e;\244\300\365\273Pf\327\273L\"\240;\273\220\314\272\330\263 <ua\264\271L\233\275;\274R\005\273\322\352\350\270\206\027\343\273H\032O\273\210+\310\273\260\250b:\277\226B;OU\304\273\207?\270\273W\356\000\272?d,<\206\246\342\271n\212%;U\336n;t\355\324;&|D9C\323+\273\342HB;\01456<Z\227):f\233\370\274\207\273\222;pv\017\273\267\177\217;\220k\201<\324\024K\273\033\223\244\272\2233\243;\350\030q\272\353\016M:\250#\0348T\243R<\320\277\304\270\251M\311\270b\363\2308\3747\354\272\n\261\375\272J>\0349\253\343\003;\306\302\211\273yVm\273\241\005D\2723\232Q;\037C\037:\016o\300;\345\246\033;\316\343\024;\354\337\233\272\016\354\316\270\262\337F;e\206\016=\316q\243:\006o\205\275\327\223\200=U\206\320<$\202N=\242#:\275\016-\333\272X\004\032\274R\344\235\275\024\207\006;k\350\235\272\215\003\000\271&@\270<Q`(\274UMP;o\300#\274\202\261o;\360\2073\271\212\256\3528hx\204:\2462m\273E\201*\274\276\027\365:\264_i\275\371\324\021=\354_~=\\|w=\350~\":V\363\0377w*\321\273\272\314\226;\036\\\n<0\030]\272|i\321\274\325\366\264\273\2529\304\272\344\265G<\275nH<u^\\\273\236\270\024\273\217\222\202<3qQ\271\375\321\267:\022 *9m\003\326<}c\020\272\255\216=\271-X?;\274\302G:\264\364$\273GR\3708\365X\013;=jz\2736\261/\273R6\010\272\230$\352\274\271-D;\220$\244<xG\004\275\244V^;\301g\001\272#\220\004\274+\2700<\304\320~;\202\026\206\272\030\321\000;Tw\275;f\257\'\273\307\3447<O\245H;\314\2363\274Y-\024\273\032l\302;\374*\260\272>]\003< \326\352\2718\347\315;rE\030\273W\263\210\271\374\237v\274\300\374\2668\360\370\360\272y\177\275:\307JB;\324\017\257\273])r\273Ry\030\272g\216\027<Y\255\253:)\371Z;\2314\037;\031\217\245;\320*|6\343\300_\271\246\337\213:\214 \236<;\220\322\270\327[\333;\306\314\232\272\314\366\3316\256i?\272\023\202h<\006:\014;O\000\305\271T&\236\272\255\371\021\272\210\327\000\271\206\274\263\270T50;jz\3408\243\251\240\267\344\024\\8\254\035\3049\032\034\3308\261\033=\270\257\000\033\272\020\354@\271\371y\322\271\245\255\3259\226\371\311\271\325\030x9\342a\215<X\034\200\272P\325\221;f\325\':mu\322;D\321\021\275k0\233=\\\310\3229\322\203\024\275\330\276W=\243D\351:\ns\256\274\341\374\304\275\257\2268:\273>\215<q\370P=\214\003\2529Q\'a9\237\216\322\272\306\351_=\366W\345:\020\207\304;b\2621\272\225\313\212\275\034\236\233\272\242A\366\267b\264\017\273l(\247\271\'<?\271\002\346b\273\205\374\024=\200\221\243<\005P\316\274\321+i\273\345M\33592\32007\331 3\271\327\242\013;\n\010\2469\232\371\002\271#\037\206\272\346\032}\272\242\361\206\266\t\220\035:u\342\031\274\032\263\024;n\036&\272\014u\331:B\216\004\273I\274\224\271\252\215\203\270\202\0213\272\223}0:\325\356\316\267\314/\357\271x\034@\273\035\01349\007\241[\270\003^\330\271r]\016\271\346\367X\271\350\231[:\300\026S<\314,\253:\202\266y\273F\302\212;\233\375\266;\'\353\260:\357NP\272$\353\331;\2648c\272\364\016\2119\023\300\374\271{\022\014\272.z\257\2702a\021\273I\222\217\273\264\346\242;\303\311\023\273Jvo\273\246\027\332\272\r\267\366;\274\007k:\307\304\2568\365\3758;\372\335\0178$tX;\302^\001\274\006\305\3548@$k;AGB\272\344\260\223\271\220)\247\267I{E;\253P+\272\375i\371:\315\'\374\272\274y\031\272\265\246\006<\201\366\203\273\021\333\225\2735\217\214\273[\221\237\276\374\351~\272\372\2117\276I\373\013=c\260\250\274B\034\010<\242\316\032>\310\362\216\2745\213)\272\327\277\013=\274$#\274\334U\242;\342\023\337\273\245\320\032=\365L-\273\346\002\004\274v\276\273;W c\275\243\266\344\273\276j\0309vY\344:@\204\267\274\031)\201\274|A#\274\230+\211<\016\n\337\274d@\036\276;\020\006=\312\215!\273\361y\002\274?\\$\273r\014\n\275f\235\021>%\316\254\274\263\344h\274D)<</\022\003\274\201\2333\276-5\201=j\3247;\017X\330\274\301)\343\275\320\225\023\274\214\312\346\273C\014)<P\203\367<\254_\027\272e\031\260<89F=<\375L\276\246\304\225<\270\256\200<J\224\035=\034\344\'\274{8\031<\0016\272\274&\022#>\311\266\002>\245\327\000\276\257vz=\303\026\301<\337f\215\273\264\307\350\273\226F>\274\377\217\006<bJ\216\273\327\331\373<yT\256=\246\365\231\274\251]x=vX\034=\276M\210\274j\006H\273\321\237\225=\356~\005\274\211\315\007<9\347\370\273\374\356\024>\222P\014\274\242S\026\274\032\232\021=\255\020\235\275@\227\354\273M\036\347:\007\327Y\273%\343\213\274\224SE\274\326e\010\274\217\347\n\276\375\276\234\275 q\003=\340\271@\274E\365!:\361\333\220\274\236\344\242\274Y\276\250\274\026\374\310\272\263\n\351\274\357\244_<d\227l=P\375\353\274%\003\010=\332w\316<g\233\332\274\032\211\272\274WbK=\004\250b\274\370\243\311<\235\204\235\274\306fO=_\"\316\274{\230\031\274\320(B=+\312W=[\016\005\274=\324/\275\354O\3379\366\270\313\274X(\247\274g\277\232\274h8B<\017d\200\275c\256|=\301p\023=\357\234\005\274\005\005&:\377\275\347;w\210\205\273R\225\032=~\304*;\022P\227=O\303\301\273\\\031\326:\314\033\355\273\"@\262\275Yu\006<\010\316\217;J\007\264;\016\337\314<\324\214\2479\242\300\355:(\344f\2750\233,\272I\366\257:%f\365; ;\235<+\'%;\202\020\250\271\274G\031<\3011\331;\302\354\340;\256T\036;\350e\010\274\210\030\336;\222\r\263<\221\346\335\273g\374(;\273L ;f\221\224<D\204\215<\270\010\013\274F\030\203\273\341Pg<}\332\013>\231dS=\303\276\370\275-\013\377=q\351\335;\031\234\326; 