node {
  name: "input"
  op: "Placeholder"
  attr {
    key: "dtype"
    value {
      type: DT_FLOAT
    }
  }
}
node {
  name: "transpose/perm"
  op: "Const"
  attr {
    key: "dtype"
    value {
      type: DT_INT32
    }
  }
  attr {
    key: "value"
    value {
      tensor {
        dtype: DT_INT32
        tensor_shape {
          dim {
            size: 3
          }
        }
        tensor_content: "\001\000\000\000\000\000\000\000\002\000\000\000"
      }
    }
  }
}
node {
  name: "transpose"
  op: "Transpose"
  input: "input"
  input: "transpose/perm"
  attr {
    key: "T"
    value {
      type: DT_FLOAT
    }
  }
  attr {
    key: "Tperm"
    value {
      type: DT_INT32
    }
  }
}
node {
  name: "reshape/shape"
  op: "Const"
  attr {
    key: "dtype"
    value {
      type: DT_INT32
    }
  }
  attr {
    key: "value"
    value {
      tensor {
        dtype: DT_INT32
        tensor_shape {
          dim {
            size: 2
          }
        }
        tensor_content: "\377\377\377\377\t\000\000\000"
      }
    }
  }
}
node {
  name: "reshape"
  op: "Reshape"
  input: "transpose"
  input: "reshape/shape"
  attr {
    key: "T"
    value {
      type: DT_FLOAT
    }
  }
  attr {
    key: "Tshape"
    value {
      type: DT_INT32
    }
  }
}
node {
  name: "w_in"
  op: "Const"
  attr {
    key: "dtype"
    value {
      type: DT_FLOAT
    }
  }
  attr {
    key: "value"
    value {
      tensor {
        dtype: DT_FLOAT
        tensor_shape {
          dim {
            size: 9
          }
          dim {
            size: 64
          }
        }
        tensor_content: "\214~+=\243\273\r=\217\341\033>\361H\372\275\206L\232;\276\272\000\276\024\003\305\276\365B\033\276\222\220\370\275~\036C\276\007\237\220\275\257\236\220\275sQ\'\276\220\373\006>F_\246\276\300\357\t>\346\251\317\2753\n\216\275\266\203C;7\237\235;\240E\024<\025RF=*\223j\276T\2105\276E\343\004>\203\331\225\276\0323\021\275lu0\276\266\317B\275WW\215\275\203\017\032>\372YT\276\335a\305=6\306\270>\353\217\267>\271\3208>\306wp\274\3654\001\276\316\003\301=\264\006\237=\027\234s\276 P\351>\220 \270>\"\327\'>;\222G>u\206\022\2767`<>-\025\243<\326\013\254\275C\262A>\000\004\206\010\325\031\222\2763eC>DY\275\275\021m\n?\261\264\024\276\276\373\324\274\236d\265=\206\013\324\275\271\254\253\276\t\375!>\025(\334=II\n\276\303l\251<\223\014\205\274\212?\315=\014J\325<I1\024>\030\\\267\275\342\025 \276\333\036\026=\311\246\030>\214N\202\276,\323\231=\021J\334\275\346\243\020>\314\346\245=r=]>\022|\200=\257\371\331=zjz<|[\255\275\025\255\010\275\331:/<\034\rI>:5\205\276\243\022o=\313\177R\276\334\266\340\275\376 \247\275\033\343\022>\306\213\205<\271q\205=\035m\024\273L\305Q\275!\233\010>\237f\212\275\323\316\241>\302J\214\276\372\300\337\275X\373\255\275\250\337\023>~\350M\276\312;\366=h\215v\275&.\334\275\236\237/\276\203\351\335=\227\2277=\234\353\033\275\353\334\300<&\014k\276\026_\215\275\237\243\214<\345]Y\211\223\310\347=\260\216I\2752(A\275:\274\327\275\013A?>m\243\273=\276\300\030>\355\373\367\274\212\341\221=\022\300\232\275L\3407=5\242/>\225\'h\273\336\215R=yc\241=J\214\237=\320\233)>\004\320\200\275\3644\354\2743-d\275\323Z\252=\022\323\266\275\354\201\002=n\370V\275u\362\n>w\030\332=!\344I>3\306\023<\204\236\005>8\334e=M\315\207=\215\207R\275\375q\203\274\220\203;>5\'\277\275\301\210\224<\321\\m\276\275\3509\276\240\333\014\276\263\212\t>6\"\371=$\333\027=\366mz\275\342\226T=:\n\350=\304+0\275<>\005\276\272\022h>\024\300\024\276\215\371\313\274Q\021?>\333wS\276\017#\034>\307\367\273\275\261\245a\276+\373/\276\314l!>\330c\321=T\214\005\276\211\332\027>D\275\"\276b3\211\275\344z~=\314A#\217\033\034\316=%1\216\2761\230 \275&\206\270\275=$P>v\255\301<\0162\311=\307g\211\275\307^\341<G\000?\275bs\310=\241\305\370=[\264\354< \336B\275c|\256\275\243\271\247>\320\\\340=;\017\221\275\033\246\214>J\300\035\276\014\225\371\2750d\361>\223`\020\276\010|\010\276H\026\217>\223R\177<\317c<=\272\376\025\276\031+\311=\374\207\333\274\032|r>\376\217\242\2754\247\005<)K\313=\234\034\234\2759D\034\276\325>h\276\033\201\250\275@\350\207\275\307W\363<\364W4\273\221$@<\371\222\236\276\001\r\304;A\347[\275\336r\030\276\\\313\007>\226\274\266=\325b\315\274\253\350\320>\232?\315:\'`\367\275\3104\206=\354\361\027=\t\355\322\275\206A#\276\364\004\252<\207\317\021>%\263\211\276\013~U>3\203\230\275W3e\275\013N\037\275X\331|\nDX\310\275\345\321T\276\257\222.\275\244\356\302>\253Y\212=n\274\225\274_\027\000>\320\025G<\317\2745\275=\226\255=&^\022\274\272\013\201<\177\010\010\275M\3657\276\214\332\230\274\235c\344>#\367\t\276\"\377\310\275\267\207C\276|\220\245\275\307\321\021\276\214\322\227>W\256\035\276\366\177\353\274\277\275\202\275H\262\212=-\230Q\276\376\342\316=\007\n\306\276\000\177\200\275\024\262\345\276N\217\223=\277|\315<\360\316\332=/\010>\276e\037\373<}AN>\341\277k\275\316r\225>z\244`\276\205hE\275\314\234\361<\250\210X\276\212\345l\276\210\272\013\275\217\363\352<8\377\213<h\363o\273\331\371U=j{(?\250\356\201\276\313\263\330= z@\276\371\362\n>+\245\264\276\225d\314=\343\273\006\276\321\271\001\276\304\311_<\304t\037\276,\350\244\275\034q\204\276\250\235\251\275\340\270.\207W*\327<\250\316I>a\276#\276\020\250 ?\003\0253\274~0\316>\253MM>\272\220\236\273hW\220\274\013y}\274\301\3223\2769\300\255\275\310\2150\276E//>:m\027\276l\326A=\222\032\t\274b<F=\346\204\326\275\262J\237>\316\326`>>\342\236\276\370TI=@O\342=\224?\305\275x\023\275\275\243\037\305=\335C\327=\335\315\003>\361\270\030=v\033A>\322\377\023\276\024\323!>\265\357\231<~f$\275\200\242\210<|{\022\274;\3248=\263\304\261\274K\030\237>*\351X\272kzI\276\355\204\307>\263\221\177=NEE>\020\250\310\274\371\320\003=\314\024%>\241\030F\276\020\243\">\023\237\240>RF\317\275r\346\037\276l\000\021=n\241\263=8k\233\276\343\327\315\275\212\262\342\274:V\210=\315\346\307\275\245\022\273\275\214r\273>aP\003\275\264\362j\212\300\224\\\275Y\317\270=\243,P>\016\016\232\276\210p\r\276\315\264\021\277\010R)\276+j\022\276?\033\334=\\.\351\275+\325!<\233\244\n>\340\317\260\274\'x!?\376\243\243?i\353\327>2\375\300\276\334\350\325>\366X\220\276\226\306&\277\276?\217\276\344\320\023\277 \261\347\276\213\202\001?\277\003\330\276\247\206\313\276\034\337\205?\024\343#\276\372\354\320<\314W\210?>Yk\277\273\016)>4KG>?\234\003\277\335\210\365=\352\026\251\277\005\316W\277\222\362\307\277h\247M\277\177\032\210=\005\377\331\276\001wk\275\240\017e\275\254bg?\006\333\337\276\335`\303?\005a:>\326=B?\037\355\200?\000E\006\276\371\311\205?/L\273>\350S\214?\201gz\276\272)k?\370\253\205?\204\202\\?\317\344=?\242\247\t\277\331\215\362?%>\232\275c1v\277gP|?\344\276\216\247\346\2518\275z^c>:\303\351\276h;\010\276\252\343\371\276ql\203\277\207\274\267\276\256\366b\277\0034c\277\305Lo?\270\016\017?\243\017\253\276\267\350\010?\031\034\237\275\307\341\374=\021\2769>\353Dh>\t4$\276L#\311<\265X\266=\336\252\202>\014\2003\276\272\243B\276\253\260E\276\263\312\230>\216\207p>\201\324\211>\354\351\020>h^\316<\0265\372=\336\276->o\251\004\274T<Q\276\313\211*?\275G\362\276\001\241\202>\345p\331\276O\337J?i,u=\253\"*>:\307\026?\265.\345=\311\270=\274\314T\245\276FS}>\010\360\225;\210\365t>J\316\"\277\334\320q\276\034\211\262\274\336\243\260>6\034T\276\035\331\223\275\336\347E\276\332\213\233\276\271z\200\276\231\264\354\274\212\035\030=(\006(<k4Q>\330\204\276\276\225\335\234>a\240\307<D\225\316\206C\303\001;C\227\204=\022_\250=\216\233\035\276[g\214>\216\271\276>$\014\311>P\231%\276\334p\033>2\257\312\275\306\013\266=\t\252\203>\021y\343\275;\n\303=\340\033\274=\020\217\214\274Pq4>e\202U\276yq\303\275p4\\=a\030\207>\316,\026\275\201]\207\275{\313\274=\017\374Y>\306l=>\304\300,>\272\203\203>\275\021\305\274\332\267\220=\320I\272\276\357\220W\275\373\305\264\275\367mQ\275yM\035\276F?\\>,\357,\276\247\206\\?ST\330=\315\014\301=W\017j=\233\020\355\275\000bI<G\344&=\032fz>\355\353\033\276\275\3673\275\036\315\241?-2\322\276\3229\254\274rbu>\r\205\245\276\310\025\230\275\326\361K;\"\t~\276\320a\271\276\227\302\036\275\245\306\374;\000l\022\276\356\003\022>\274\0147\276\360\231\326=\205\262\211=\252\341\373\010\353\227\255=p\222\013\277\317\310\r\276\353e\320\276\347\207\226>l\310\222\276\221\346t>F\246\267\276\0345\023>\275\014\205\275\031\315I=\305wO>\334\234t\276"
      }
    }
  }
}
node {
  name: "b_in"
  op: "Const"
  attr {
    key: "dtype"
    value {
      type: DT_FLOAT
    }
  }
  attr {
    key: "value"
    value {
      tensor {
        dtype: DT_FLOAT
        tensor_shape {
          dim {
            size: 64
          }
        }
        tensor_content: "\200\275\233>\261n\260>\0025\245\276\007{??\026\003x>\275\\b>,q\364?\262\0162?r\366\351>O\005\016@Xq\257?o\3531?\014:C?\032\372`?\241#+?.s\220?\235\242\201?\266\373Y?\204{\230\275\020\3472?\n\331\207?\014d/\276W\372\342?{Z\233?\037G\314?8@\225?!\212\202?P\327O?\347\305\035?\352\230\327?\233\234??\267q\203?\312N\313>\243y\201=(\0074\277\263\254\233?\367[\262=\006\244\221?\004\241$>rO\000?\232\223`?\357\344a\277\322\302\240=\212\210\205>\360hS\276})\224?\033\007\232\274\032\246b?`i\202?\"\216\202>2&\207\250\224\211\244?\t\350\213\276h\016\333>~\235H>\351\346\371?e\014|?\247S8?)\234\220?\346\226\366?\2640\241>\371\377\226>7\242\244?B\213\307?"
      }
    }
  }
}
node {
  name: "MatMul"
  op: "MatMul"
  input: "reshape"
  input: "w_in"
  attr {
    key: "T"
    value {
      type: DT_FLOAT
    }
  }
  attr {
    key: "transpose_a"
    value {
      b: false
    }
  }
  attr {
    key: "transpose_b"
    value {
      b: false
    }
  }
}
node {
  name: "add"
  op: "Add"
  input: "MatMul"
  input: "b_in"
  attr {
    key: "T"
    value {
      type: DT_FLOAT
    }
  }
}
node {
  name: "relu"
  op: "Relu"
  input: "add"
  attr {
    key: "T"
    value {
      type: DT_FLOAT
    }
  }
}
node {
  name: "split/split_dim"
  op: "Const"
  attr {
    key: "dtype"
    value {
      type: DT_INT32
    }
  }
  attr {
    key: "value"
    value {
      tensor {
        dtype: DT_INT32
        tensor_shape {
        }
        int_val: 0
      }
    }
  }
}
node {
  name: "split"
  op: "Split"
  input: "split/split_dim"
  input: "relu"
  attr {
    key: "T"
    value {
      type: DT_FLOAT
    }
  }
  attr {
    key: "num_split"
    value {
      i: 128
    }
  }
}
node {
  name: "rnn/Shape"
  op: "Shape"
  input: "split"
  attr {
    key: "T"
    value {
      type: DT_FLOAT
    }
  }
  attr {
    key: "out_type"
    value {
      type: DT_INT32
    }
  }
}
node {
  name: "rnn/strided_slice/stack"
  op: "Const"
  attr {
    key: "dtype"
    value {
      type: DT_INT32
    }
  }
  attr {
    key: "value"
    value {
      tensor {
        dtype: DT_INT32
        tensor_shape {
          dim {
            size: 1
          }
        }
        int_val: 0
      }
    }
  }
}
node {
  name: "rnn/strided_slice/stack_1"
  op: "Const"
  attr {
    key: "dtype"
    value {
      type: DT_INT32
    }
  }
  attr {
    key: "value"
    value {
      tensor {
        dtype: DT_INT32
        tensor_shape {
          dim {
            size: 1
          }
        }
        int_val: 1
      }
    }
  }
}
node {
  name: "rnn/strided_slice/stack_2"
  op: "Const"
  attr {
    key: "dtype"
    value {
      type: DT_INT32
    }
  }
  attr {
    key: "value"
    value {
      tensor {
        dtype: DT_INT32
        tensor_shape {
          dim {
            size: 1
          }
        }
        int_val: 1
      }
    }
  }
}
node {
  name: "rnn/strided_slice"
  op: "StridedSlice"
  input: "rnn/Shape"
  input: "rnn/strided_slice/stack"
  input: "rnn/strided_slice/stack_1"
  input: "rnn/strided_slice/stack_2"
  attr {
    key: "Index"
    value {
      type: DT_INT32
    }
  }
  attr {
    key: "T"
    value {
      type: DT_INT32
    }
  }
  attr {
    key: "begin_mask"
    value {
      i: 0
    }
  }
  attr {
    key: "ellipsis_mask"
    value {
      i: 0
    }
  }
  attr {
    key: "end_mask"
    value {
      i: 0
    }
  }
  attr {
    key: "new_axis_mask"
    value {
      i: 0
    }
  }
  attr {
    key: "shrink_axis_mask"
    value {
      i: 1
    }
  }
}
node {
  name: "rnn/MultiRNNCellZeroState/BasicLSTMCellZeroState/stack/1"
  op: "Const"
  attr {
    key: "dtype"
    value {
      type: DT_INT32
    }
  }
  attr {
    key: "value"
    value {
      tensor {
        dtype: DT_INT32
        tensor_shape {
        }
        int_val: 64
      }
    }
  }
}
node {
  name: "rnn/MultiRNNCellZeroState/BasicLSTMCellZeroState/stack"
  op: "Pack"
  input: "rnn/strided_slice"
  input: "rnn/MultiRNNCellZeroState/BasicLSTMCellZeroState/stack/1"
  attr {
    key: "N"
    value {
      i: 2
    }
  }
  attr {
    key: "T"
    value {
      type: DT_INT32
    }
  }
  attr {
    key: "axis"
    value {
      i: 0
    }
  }
}
node {
  name: "rnn/MultiRNNCellZeroState/BasicLSTMCellZeroState/zeros/Const"
  op: "Const"
  attr {
    key: "dtype"
    value {
      type: DT_FLOAT
    }
  }
  attr {
    key: "value"
    value {
      tensor {
        dtype: DT_FLOAT
        tensor_shape {
        }
        float_val: 0.0
      }
    }
  }
}
node {
  name: "rnn/MultiRNNCellZeroState/BasicLSTMCellZeroState/zeros"
  op: "Fill"
  input: "rnn/MultiRNNCellZeroState/BasicLSTMCellZeroState/stack"
  input: "rnn/MultiRNNCellZeroState/BasicLSTMCellZeroState/zeros/Const"
  attr {
    key: "T"
    value {
      type: DT_FLOAT
    }
  }
}
node {
  name: "rnn/MultiRNNCellZeroState/BasicLSTMCellZeroState/stack_1/1"
  op: "Const"
  attr {
    key: "dtype"
    value {
      type: DT_INT32
    }
  }
  attr {
    key: "value"
    value {
      tensor {
        dtype: DT_INT32
        tensor_shape {
        }
        int_val: 64
      }
    }
  }
}
node {
  name: "rnn/MultiRNNCellZeroState/BasicLSTMCellZeroState/stack_1"
  op: "Pack"
  input: "rnn/strided_slice"
  input: "rnn/MultiRNNCellZeroState/BasicLSTMCellZeroState/stack_1/1"
  attr {
    key: "N"
    value {
      i: 2
    }
  }
  attr {
    key: "T"
    value {
      type: DT_INT32
    }
  }
  attr {
    key: "axis"
    value {
      i: 0
    }
  }
}
node {
  name: "rnn/MultiRNNCellZeroState/BasicLSTMCellZeroState/zeros_1/Const"
  op: "Const"
  attr {
    key: "dtype"
    value {
      type: DT_FLOAT
    }
  }
  attr {
    key: "value"
    value {
      tensor {
        dtype: DT_FLOAT
        tensor_shape {
        }
        float_val: 0.0
      }
    }
  }
}
node {
  name: "rnn/MultiRNNCellZeroState/BasicLSTMCellZeroState/zeros_1"
  op: "Fill"
  input: "rnn/MultiRNNCellZeroState/BasicLSTMCellZeroState/stack_1"
  input: "rnn/MultiRNNCellZeroState/BasicLSTMCellZeroState/zeros_1/Const"
  attr {
    key: "T"
    value {
      type: DT_FLOAT
    }
  }
}
node {
  name: "rnn/MultiRNNCellZeroState/BasicLSTMCellZeroState_1/stack/1"
  op: "Const"
  attr {
    key: "dtype"
    value {
      type: DT_INT32
    }
  }
  attr {
    key: "value"
    value {
      tensor {
        dtype: DT_INT32
        tensor_shape {
        }
        int_val: 64
      }
    }
  }
}
node {
  name: "rnn/MultiRNNCellZeroState/BasicLSTMCellZeroState_1/stack"
  op: "Pack"
  input: "rnn/strided_slice"
  input: "rnn/MultiRNNCellZeroState/BasicLSTMCellZeroState_1/stack/1"
  attr {
    key: "N"
    value {
      i: 2
    }
  }
  attr {
    key: "T"
    value {
      type: DT_INT32
    }
  }
  attr {
    key: "axis"
    value {
      i: 0
    }
  }
}
node {
  name: "rnn/MultiRNNCellZeroState/BasicLSTMCellZeroState_1/zeros/Const"
  op: "Const"
  attr {
    key: "dtype"
    value {
      type: DT_FLOAT
    }
  }
  attr {
    key: "value"
    value {
      tensor {
        dtype: DT_FLOAT
        tensor_shape {
        }
        float_val: 0.0
      }
    }
  }
}
node {
  name: "rnn/MultiRNNCellZeroState/BasicLSTMCellZeroState_1/zeros"
  op: "Fill"
  input: "rnn/MultiRNNCellZeroState/BasicLSTMCellZeroState_1/stack"
  input: "rnn/MultiRNNCellZeroState/BasicLSTMCellZeroState_1/zeros/Const"
  attr {
    key: "T"
    value {
      type: DT_FLOAT
    }
  }
}
node {
  name: "rnn/MultiRNNCellZeroState/BasicLSTMCellZeroState_1/stack_1/1"
  op: "Const"
  attr {
    key: "dtype"
    value {
      type: DT_INT32
    }
  }
  attr {
    key: "value"
    value {
      tensor {
        dtype: DT_INT32
        tensor_shape {
        }
        int_val: 64
      }
    }
  }
}
node {
  name: "rnn/MultiRNNCellZeroState/BasicLSTMCellZeroState_1/stack_1"
  op: "Pack"
  input: "rnn/strided_slice"
  input: "rnn/MultiRNNCellZeroState/BasicLSTMCellZeroState_1/stack_1/1"
  attr {
    key: "N"
    value {
      i: 2
    }
  }
  attr {
    key: "T"
    value {
      type: DT_INT32
    }
  }
  attr {
    key: "axis"
    value {
      i: 0
    }
  }
}
node {
  name: "rnn/MultiRNNCellZeroState/BasicLSTMCellZeroState_1/zeros_1/Const"
  op: "Const"
  attr {
    key: "dtype"
    value {
      type: DT_FLOAT
    }
  }
  attr {
    key: "value"
    value {
      tensor {
        dtype: DT_FLOAT
        tensor_shape {
        }
        float_val: 0.0
      }
    }
  }
}
node {
  name: "rnn/MultiRNNCellZeroState/BasicLSTMCellZeroState_1/zeros_1"
  op: "Fill"
  input: "rnn/MultiRNNCellZeroState/BasicLSTMCellZeroState_1/stack_1"
  input: "rnn/MultiRNNCellZeroState/BasicLSTMCellZeroState_1/zeros_1/Const"
  attr {
    key: "T"
    value {
      type: DT_FLOAT
    }
  }
}
node {
  name: "rnn/MultiRNNCellZeroState/BasicLSTMCellZeroState_2/stack/1"
  op: "Const"
  attr {
    key: "dtype"
    value {
      type: DT_INT32
    }
  }
  attr {
    key: "value"
    value {
      tensor {
        dtype: DT_INT32
        tensor_shape {
        }
        int_val: 64
      }
    }
  }
}
node {
  name: "rnn/MultiRNNCellZeroState/BasicLSTMCellZeroState_2/stack"
  op: "Pack"
  input: "rnn/strided_slice"
  input: "rnn/MultiRNNCellZeroState/BasicLSTMCellZeroState_2/stack/1"
  attr {
    key: "N"
    value {
      i: 2
    }
  }
  attr {
    key: "T"
    value {
      type: DT_INT32
    }
  }
  attr {
    key: "axis"
    value {
      i: 0
    }
  }
}
node {
  name: "rnn/MultiRNNCellZeroState/BasicLSTMCellZeroState_2/zeros/Const"
  op: "Const"
  attr {
    key: "dtype"
    value {
      type: DT_FLOAT
    }
  }
  attr {
    key: "value"
    value {
      tensor {
        dtype: DT_FLOAT
        tensor_shape {
        }
        float_val: 0.0
      }
    }
  }
}
node {
  name: "rnn/MultiRNNCellZeroState/BasicLSTMCellZeroState_2/zeros"
  op: "Fill"
  input: "rnn/MultiRNNCellZeroState/BasicLSTMCellZeroState_2/stack"
  input: "rnn/MultiRNNCellZeroState/BasicLSTMCellZeroState_2/zeros/Const"
  attr {
    key: "T"
    value {
      type: DT_FLOAT
    }
  }
}
node {
  name: "rnn/MultiRNNCellZeroState/BasicLSTMCellZeroState_2/stack_1/1"
  op: "Const"
  attr {
    key: "dtype"
    value {
      type: DT_INT32
    }
  }
  attr {
    key: "value"
    value {
      tensor {
        dtype: DT_INT32
        tensor_shape {
        }
        int_val: 64
      }
    }
  }
}
node {
  name: "rnn/MultiRNNCellZeroState/BasicLSTMCellZeroState_2/stack_1"
  op: "Pack"
  input: "rnn/strided_slice"
  input: "rnn/MultiRNNCellZeroState/BasicLSTMCellZeroState_2/stack_1/1"
  attr {
    key: "N"
    value {
      i: 2
    }
  }
  attr {
    key: "T"
    value {
      type: DT_INT32
    }
  }
  attr {
    key: "axis"
    value {
      i: 0
    }
  }
}
node {
  name: "rnn/MultiRNNCellZeroState/BasicLSTMCellZeroState_2/zeros_1/Const"
  op: "Const"
  attr {
    key: "dtype"
    value {
      type: DT_FLOAT
    }
  }
  attr {
    key: "value"
    value {
      tensor {
        dtype: DT_FLOAT
        tensor_shape {
        }
        float_val: 0.0
      }
    }
  }
}
node {
  name: "rnn/MultiRNNCellZeroState/BasicLSTMCellZeroState_2/zeros_1"
  op: "Fill"
  input: "rnn/MultiRNNCellZeroState/BasicLSTMCellZeroState_2/stack_1"
  input: "rnn/MultiRNNCellZeroState/BasicLSTMCellZeroState_2/zeros_1/Const"
  attr {
    key: "T"
    value {
      type: DT_FLOAT
    }
  }
}
node {
  name: "rnn/multi_rnn_cell/cell_0/basic_lstm_cell/weights"
  op: "Const"
  attr {
    key: "dtype"
    value {
      type: DT_FLOAT
    }
  }
  attr {
    key: "value"
    value {
      tensor {
        dtype: DT_FLOAT
        tensor_shape {
          dim {
            size: 128
          }
          dim {
            size: 256
          }
        }
        tensor_content: "tR\273:E\273\260\2742\240\361;o\2431;\361\264\303\274j\231\226\274\307\373\210\274\361\215l\274\252\346\336\275( \001\274\202\304E;u\310\277\274_+\267\274O\215\024\274X\337\223\274W+\203\274\303v\260\274W\303\244\274\242\006\247\274`K\272\274\026p\031;\255\376x\274r\033\3519$\357-\274\344\324\315\274N7\252;\355J\225\274\300\007\230\274\352\3634\274Q\004/=\314\374\207< G@\275\266\256\232\2741\356\030\274U%\367\274\241\370G\2740\355U\274\375~I=\361\366\241;S\251(=\354\355\212=k\031\304\274\323\205\006\275G\022\007\274\027\316\023;[\311\214\274\301S\264=\314\263\335\274\354\327\251\274\237\003A\273|\354\340<\341#6\276\016t\325;$>\223<\305\370\305\274\220:f\274\\\303n;\346T\225\273\326\362\213\274\364Vb\274)\016\034=\334l\231\274\242\362\013<Z\326\212\274z0\023\274\\\301R\274\2522\355\274\321\013\010<\003\224\031\274C\303\243\272\371\023\242:&\200=\275e\346(=\224\\\201<\276-\034=\307`?\275\343\026\320\273\321\2602<$A\204;t\221<\273BFv9!T\303<\370\346\334<&Q\306<\364\214=<\262@\222;b\316\345\273\0052b=\201\t*\274\307\215T=_\303*=\335\001\032<\246B\320\271X\215\367\275\003\336\034=D\373U\274Vry=\020\030>:\251Q\350\274h\361\024\275a\370\226;\233}\344<s\006\006\275UPm\275{{\340\272{m\324<\220\027\201\274\240h\000\275[\314\022<\340\265>\274\001\266\277\273\027\300a\273\345=\255<\207\365\205;\273\315\237;6\377-\275\006\224\237\274\330\326+=\213= \275\205\344\271<\323v*<\004\007#\275\352\016\354\272\343\nC<}@\314\275PJ\250\274V;#=e\026\224\273\2247T;I\nf\274i\300\244;2\233\215;\261\222\221\2749pV\274xRZ\274$5\226\274\027 \211=a\255\025\274\004\266\266;\353\262\212\274@\247\301\274%\205!\274\312\025V\274aL;\274\324}m\274\220\223t\274d6\217\274\327I\241\2746\231\361;\356\302\030\274w3u;\302U\261\274\367G\005\275\253\317):\024\353j\274 \271f\274P!\253\273@\372\224\275\204\017w=\267&\n\275\355\234h\274\315\367\376\273\326T\356\274^\366\031\274\304$\r\274\363L\021\275\025\010\021<\206>\266\274\371\371\265\274\321\344\304\274\215#\275\274l\013~:6^\270;\301\3653\274[a\037\2755\334q\274V\343g\274N\017\263\2723\313\227<\302\373\032=\265\362I<\365\230\313=\001\260\360\274e\316M\274\033\212\343;\316f\013\274\006%6\274kK\315=K&\320\274\005iq\274TK\257<I\027T\274\n\251h\275\314\267\r\275,\240\000=\364;\235\275\270\010\320\274,\326\234\274U\334\177\274V|C\274!\273\201=Y\216w\274}\234\365\274\270%\334\274\177\330\373\2749o\212\274\352\327\264\274\215\350r\274\310\023\260\274\200,\267\274\252^\304\274;)\314\274\307\323\234\275\252M\353\274\336u\242\275\334\0313\275\233\331\366\274\246\3375\2750X\005\275\244\203\204\274\005d]\274K\204\215=2\312\300<\362\034\014\274p\3001\273\"\260\325\274\330|\025\275\033_\350\274O\200\242\274|\2113=\313wR\275\001\227B=\230 \316=\266\027\004\275]\026\376\274\337F\n\274D\225\214\275\226\r\227\274\357\275\244=\331\3013\274\205\267\311\274/\251u\275\004\236\007\275r\321\025=C\312\212\275 e)=\257y#\274H\311\235\274\034\260\230\275\035r\227\274\332\341\220\274\376nF=\301\221\333<\372\246\275\2742\272T=z|\200\274\013\177!;\351R\213\274l\030\024<H\034\372:\016\247\035\275\263#\347\274\274e\333\274\224\324\310\2746\\\237=\033cU\274\262\276\244;Rb\035\275\317\202\031\275^\222y\274\334h\002\275\304\276\330\274\017\244\017\275m\245\000\275\360~\r\275\267\241\024\275\034\260\201;\235\376\362\274]\377\236:\361}\247\273\351~\030\275@_\000<\264\031\346\274>\271\272\274\2163\253\274v\267\213=\250\355\230<x\213\250\2741\226\007\275t\001\203\274*\3458\275\234R\244\274nV\305\274`\332\225=br\t<\235\177\257=E\256\320=>\373\034\275i\032\020\275-rz;|LD;\220\321\353\274\004\032\033=\217\264\315\2741\213\003\275\344\324u\273\n\350%=q_\325\275\001\"[<\024\325\017=94\010\275\205\373\276\274^\026\244;oE\332\273\332\202\361\274\nk\200<\3220f=/\010\375\274\024\375<=\031b\330\274\235\022^\274yk\205\2744\026\034\276\'\357!<X\217\227\2740\274\221\273\325\014\247;l5\272=\362\\\363\275\271\022\267<\0323<=\207{\367\273#\307\\\274\205\367\242;\352S\202;\324\332\345\273\346p`;\346K\365<_\304\t=D \001=\314J\214<>\232(<\327$_\274!\253\374:\331B\014\275d\033\030=f\363K=\366b\366\273\031\304\033\273\325\223\037\275\326\035\000>\010\372B;\373\216\372;G\323\323\271f\354\003\275\243\013\304\274\336\"1<\227\344\016\276\361\361\002\275\336\220\263\275\356\326c\275\210\325\003=\206\204\237\274\211.5\275\347\341[<\216<i\274\226\255\252=-o(\273\323\237\371<\233\024\241:_\032\265\275\225\036\277=s[\372\274a\307R\275z\277>\275\271r\004=\357\r\203<\303\310W\2757\377\305\273\002L\310=Q\177\345\275O\250\324\274\243\014\251=\213J\352\273\"4\271;\201;\206\274$q\t=\3110\230;\224\274\364\274\352i\262\2745\204\261\274\\\336\311\2748\322\260=e\347r\274\0220\020<\026\207\326\274]&\035\275<B\201\274\371(\312\274\026\331\216\274\357\'\303\274\310\200\305\2745\'\352\274}\267\003\275#\237F<\347\254\235\274$\334\377;\300[\322;\207X?\275^U\2549]$\267\274\245#\247\274*\214-\274Uc\370\274\256\216T=$H\364\274^z\320\274l\252W\274S\341/\275\234\305\211\274|ml\274x|\237<<\244\\<\200Ek\275\r\262\264\274\000\356\025\275e\352\010\275]\366\221;\346\001\n<\275\031\234\274q\204\201<\346\030\244\274\031\214\276\274\024\257\335\271\356J\013=x\366\327= \314\241<QB\020>\317D\034\275\353\375\250\274\205\004(<\263\365g\274\330X\245\274\307x\201=\204[\213<\030\301\316\274\023\243 \275\363\377\241\2742\241\361\274?u\006\2758\255!<\373\024\216\275\223\034%\275\333\037\374\2740\036\335\274\022\322\003\275\265\265\260=\320&\254\274o\370p\275\2535&\275\277\340#\275^\323\327\274\341\373\020\275i\\\373\274Y\241\016\275\353\204\r\275\251\026\017\275\245\256.\275^\343\n\275@K6\275\253sR\275\276\354\225\275\372m2\275\213\006V\275QcE\275\303\300\251\274\0077\275\274\331\252\272=\373\343v\274~\277\235\274\203\275\205\275\020\366\317\274\325\332S\275\026d\017\275O=\362\274)\331\200=\007\326\305\275\214\016\347=\006E\004>\304\336G\275\305*7\275kIs\274\tI\232\275\240\254\364\274\330\022\274=*/\213\274N2\033\275\257\325\200\275\343\257\t\275\027M\222=I3\257\275e1\206=\"xp\275 \024\000\275\267!\274\275\275\007\347\274\246\340\365\274$\013\246=K\373\357<7\243\024\275\030e\217=\216\030\325\274\010\372\2139\013A\360\272\233\3760:?\256L\272e`\010\273>_\032\273\010\234\215\272H\244\260\271\243\257!>\302-\370\273\004\377\365\271p\344\006\272\223\222\004\273\365\3513\271\222\272F\273\253\353\230\272\247\2227\273\236\235\312\272nPw\272\304p\245\271@4\264\272\004-\256\272\204\010\330\271\024\341\r\273d\302l99Q\216\271\022\365\351\272T\2571:p\270\2459\251\251\371\273+Ub94\026\313\273\006\032\007\273\217S\004\273\314T\301\272U\360\205\271\025(\310\272\030\207\r\273\014\377\316\271l\332\262;\034\346/\272~\350v\272\366\205?\272R{e\273?$0\272j\333*\273\335\032\277;\341\377\t\272x\245O\2734\036\3729\264\2271:\365\010I>o2\036\271WX\271=O\204\013\270\326\\^\273C7\241\271\233\244\354\273B\225\320\272\222\314\001>z\332%\272\221\323]\273\271\007\341;]\225-\272|$\255\270\r\230\007; \323\367<\346\263\027\272\364\250\004;h\300\220:.\030\333\2721\365\026\272\305\376\255\275\220\200\320\273n\343\026;\355\023\257\273\277W\366:\002\322\024;;\357\005\272j\274E;\200S\206:\276\241?\272\014\020\"\271\n\032\2659\256R\312\272.\320\236\272%\363\302:\376a\260<\360\327\244\273I\363\375:OY\323\2703\377\225\273\rT\253:\331\202\234\274\216\307\341<\016?\230:i!\271\273\000\241\007\273o\261\2679\373\036F\273\216/Q\273\260\020\002\275\313\370t9\332q<\275\330\023B>\034\254X\271^\024u:.Q\3229\234\343\232\272\0215\';\262\"\351=@\2215:\366\305\n\272\371\325|;\242\020\350<iYN>\375#\33483fw>\322v\321\272d\256\322\272\032\305m\272\255\336\2579\314G\024:\3473\234\276e4\227=\217d\252:j\323\332\275\274\331/;n]\2229\036=\231\272\320Ut9u\030\203\271g\031\017\273LC\347\272yBL\272\3235\215\271\233W%=\225\276\305\273\334\232\232\271\2219/\271C\275\022\272\234`G\271\302o\020\273\357\005/\272\036Q\010\273\2626\223\272\327\272\376\271\256\002\216\270\342\244Q\272\003\005X\272G+\306\271a\231\032\273\315\303j9\010\"\021\272\256\201\244\272bR\033:\357r\2559-\342\372\274\356#I:\262j\243\273\220O\205\272\335H\316\272\253y_\272\227\362L\271\244\267\216\272V\n\265\275(\t&\271\375\210\274\274\236\021\202=p2\000\272\030\303\000\272\336\333\241\273\275x\014\272F\213#\273\r\343u\274\310\254\327\271\r\236\342\272\242\033\3439\236\337\274\270\232\335\267\275w\377\251\270(\'\006>\023A\231\267\014\222\022\273Z\246`\271bZ\346\273_&\321\272M\351\277<g\220R\275\271\212\032\273\331\237\333\274\006\346\266\271\204\235.;=H\265\272=H\201\275}\245\034:\'?\007\273WPF\273R,\007\273\310P\301\271\007k,;\225\001\025\274\246\357l\274\022G\246\271x\345\212\272\376\204\365\270|\"\364\272v\321\372\271g\313-\273\322\335\305\272\220\357\244\272\264H\314\270[\327}\274\371l\222\272\250\355]\272\222\"\273\273\275\301\031:\322\311\211\273\276\216\t9\356\252p:\222\310\3478\342\334D\273\t\365\224\274%\010\335\273\n\261\021\273\344\305D\272\254\272\361\272\017\030\016\272\251\362\300\272\332\364\262\273\031{\216\274w\004\350;&\314\007;f2\211\2729B\265\272G\271\031\275\026\333Z\274\004\341\341\272\236\026\357\272\342\320\016\272\367\360^\273\000\314\250\273\2221\017\274\276\006\220;\350\341\357\273\027\311\207=\352\313\3719\312\217\237\273\244D\364\273/\224F\274\221\310\257\272\212\213\004<<{\323\273\304_=\273\345i\264;=\355\264\271\261ad:\221\266\207\274\375\344\235\272;l\340;\213\216\275\273d`\306\273\327zN\273\266\342\273\273\010\202*\276\330\010\230\274\237\251\0059\024\355\362\273\203R0\274g\327X\274 R\2077\250\245\236\273\024\324\253\272`\336\'\274\245\305\327\274\325\255\223\274s9\016;\025>:\274tm?:\221\310\007\273J3\320\273Lr\3529\261\2735\274S,N\274\310d\312\272K\007\256<\177\035\272<i\354\341\272\355\377/\274\333\264\233\273\235\016\022\273\372\315\300\272~\241\345\273#\0011=\227\370;;\204e\352;:\034\037\274\360\3357\274\263\263?\274\000\264\204\274\230\203D;\247\036\342\273\355\235\023\274\352\330\301\273!7P\274\331@\367\272\014%9<U\361\033\273\254\375.9\261\244\220;\342H\317\273\020Z\251\274\233\000\210:y\311k\274\262\263\343:\245\314Y\276\310x-=t\366\340\273\236\241\376;\001\026\273\273\367\336}\273w\331$\274#m\252\274\335X\213<wK\n\274\306\360\\<\022\3224\274/\024\017;/d\327=\307\267\264\270\022\356\223\274\n\377\360\274\n{\251\273\370\236\230<v\336\026<@\344\\<\231\205_\2744\226*<\212;E<\253\340\210;\251W\343;\350\317\201\274\244`4\273\333{)=\363}\217<F\250\345<\336\304w<\210\013c<\034\276T:\233\360\017=$\323\250\275\344\232\207\272\377Od<G\322\213;\020\376z\274\373x\315:\276<\236\274 o\307=\264\205M\274vv,>=g.\275*\377J<\276\324\365\273k\354\000\274\375\336\017<\275\372\233\273\373p\251\273\014&/<Y}\256;\211\355]<\240q1\275l\232Q=\022\274\017\273x\002\350=\261\313\245<_\260\347:\333i`;\'\037|\274\260\366h<\312%\177=<\007\003<\202\372#\274\272\305\216=-g\331;.\354\000;\014\237\207\274_\326$<\203n\"<E\013\032\273\262z\204\273W\373\002\273\016\203\240\273\346\235H=\020j\216\2742\344G8\262\254\222\273g\374\341\273l\200C\274\3747n:\337fa\273\337d\235:\'*\306\273\2250\222\2746\251&\274D\027k;\367~\354\273[\377\202:\031\344\222\273o\306\364\273,4\342\271Xd\352\273!\356:\274z\010\261\271(.\314\273!l\237<\3112\377\273\323)2\274\2631\212\2732\310!\273_\231)\2734\321\251\273X\233\236=\\\203\251;\221:\006=Ch\267\275dX\353\273\013v \274\320\263\223\274\333\002\277;\367\242\226\273V\230<\275\rF\210\273\337\006\300\273j\007O\273\217\243\341<\351\244\007=\323\327\022:\260\2329\275\334\3154\274\322=X\274D9\001;!%\'\274\342\303r;\203\372v=\005\005\251=\034\374\220\273kG\315<\177\210\207\273\346\224\025\275\3510\326\274Ax\374\273\352T\330\272*\346\323\273\371R\276\273\220qe\270\005\331\314\273\362O\371<\244\212\001\275\232\263\264\274\254\270\356\273\374\3431\274=\314\220\274\"\336\017\273\211\271\002\274\270\202\233\272\026(<\274\337s\343\274\023\376\253\274a\221\3139Y0H\274\235\313n\274\2602\217\274\005\270\254\273GF5\275L\345\021\274\014\364L\274|eR\273\354\215\004=.\306U=W\351\357\273\2306)\274\370M\t\274\025\224\242\273\307\034\352\273LUF\274\343\312\027=\314\004V\274\326\202\r=\316\321?=:\251f\274\317\034w\274\254\332\202\275c\277\244<]\234\366\273]\310\023=\252\276O\273\264\342i\274iQ\217\274\310Y\267\273\233^L;Ih\203\2738\201I\275\017\\\260\2747*\335\274\365?c\274\243.\010\275\322t\030;\177\002\304<_A\010=3\241\032\274\340\345\004=\275\230\027\274\237oH:\035@\014\274\202%\221;\002\203\232:\230\204w\274\244o:\2749r0\274\2563@\274}\351F\274\026\231\263\271\210ah:A\307\224\274JA\022\274\342\241\250\272\357\336\037\274\371\023\310\273y\264~\274\017\241.\274\213U\337\273u\225`\274&;\"\272<\340\272\273*\2512\271C\244A\274Q\026\244\274\324\207d;\\k\352\273\227\261\022\274\201\220_\273\016\022\021=\213\027\r<4B\244\273\336\253\236\274\374\000\273\273\231\212\222\274$a\250\273\027\004\247\273l\256\370<\232\215P:\317\2373=\223\030\021=uz\246\274\003\233\240\274B\016><\254\234>\270\274\030\010\274\372\267\220=\364\316\007\274\374\031\022\274\304A \273i\317\267<kx\243\275\357\356\270:\244Q\205\274\276D}\274\306\221\2229\212\201\24594\372&;\201W>\274\221\225\200\274\2669\246<\343\374\021\274I\202F<\326\203\353\273)\'\217\273\372\n\023\274\254\014\237;\252.Y;e\023l\274U\320H\273\2209 ;\304J`\275j0\010=\312ay<V\343z<\217\0306\275y\346$\274\261H\000\274OK\267:\235\212-\273\334\232\215:_d\255<v\243\301<V@\267<\3209\035;\272\331\";\242\267\205\272\341 :\275\000\352\216\274+\3506=\033_\017=\357\256\243:\r\2324\272B\372\260\275<\322\260<9\265>\274\001I\235<E\332\327\271\267\370\302\274S[.<4nw;\374\251\036<\253,\027\274\333H-\275\2440x=\3422\247<a\001N\274<\212\360\274\326\241\310:\303\030\030\274\335<\007\276\225p\210<;K\233<\232q\321;\365 \036=&w\246\275@[#\274mL\306\275\247\026\317;\322d\233<\250&);<G\004\275\340|\225\273\nS\236=\334\036&=R\313\202\274/\324k\275r\224.\272\223\035\262:\226P\025\274t\273\313<\022\244\006;\202\374\037\274~^\323\273\375\020\360\273\014\322\006\274\326\265W=\255|\333\272\033r_;\346%<\274\237\250;\274\241\007\237\272x\230\320\2732\311\205\273.\363*\274-\013\345\273f@\262\273>\300+\274\271J\230:\323\262W\273d`29r\347\233\273Au\313\274\255\211r:\272\215\243\273\023\277\035\274d\343\t\273 \222\253\272\356\001J<,N\237\272\262\212\227\274c2\223\273;\241\215\274\333%\347\273\357\305\\\273y\371\320\274\037T\217;\006\350\240\274M\300\010>8zn\274\004K\227\274U\377b<57\212:\323e\254\273x\003+\275\370\r\277\273\314\275\207\273oQ7\273 \351\305<V\371\032=\352&\265;p\272\377<\210\314\272\274O\362\316\272s\327\357:=/\001\273\311.\372\273\006\355c=}\273\236\274\225u\306\273\270#\022<\024~\312\273\360jB\275\313I(\274\301\223k\274\247\276%\275\372\211\214\274\224:6\274\"\375\024\274\264\3365\274\300FI=\003\256c\272%F\276\274\241\330\234\274\261\007\265\274\277|T\273\0141I\274\030\341a\274\301s\207\274r\320K\274\264)\017\274Q\323\201\274\221\212\'\275l\210\214\274\010\260=\275\234\013\t\275\300{\272\274\241\263\021\275J}?\274\273k\024\274#_\231\273\301\020x=\312q\243;\033;L\274\336C\264\274\376M+\274[a\301\274U\251\214\274\360*A\274M\333\022=\332\303\317\274\277\242|=H\243\222=&\315\343\274|\236\305\2745\365\224<\350]E\275\232\360\037\2741\017l=\247\352\217\273\"\376=\274]7\032\2759t$\275\271vS=\312\234\034\275<\272\246<\300\251\020\275\017\230:\273\376\316,\275\372\225\250\273@\211Q\274R\230\002=\267M\237;\310\262V\274\310\365 =\215\251G\274\246\341\0179\274/\034\271w\346=\271\211//:hlP\272\201l\024:/&\223:\306\211\203\267\366\274\321=\230\374\216\272J\214\3069\205\t\023\270\014\306\245:c9\210\270\234\320}\272\230O\016\271\207\240\251\272\206\325*\271\355l\000:\201y\013:\330\306\2129\351\274^\271\"\262\24780Z{9I\355\3178\324S\25288\023\3579s\t\32385\240?\2713\265\312:\367\237\025;K;\210\272\277$\022:;\225?\272I\2725\272\366\253\260\271V\234\205\272\'\256\2409jl\3316\274dC:\'\274B\274b\253\231\271\255[\0079\252X\014:\263fq\271?Kz\271\231\"\002\274b\255;:\356\231\250\270L\326h8\222 \310\266\356\341\334\275\010\231\215\267\256vO<\200\252\3208\332B\3529\025e\005\270\265y\242:ZS8\271\017j\200\275\346\010t;5\332\3739L\'\321\273\201}i9\334\001 9\256\373[9|\220\232:N\242\r\273N_\010\273\367(\347;\234\200\026\274y_\242:/\351\345=\350\276\324\271\014#\010\267L\267\036\271\266#\035;\200\311@;\027\223\201\272\000`!;\301F\330:)\27759Op#9\020\000\3029\324\210m:N+\023;\341xb\271 \006$\271\361\247H\273\211wo7\354\250\35583\2162<\0349\213:x+\262=>\t\236\275\023\225\341;\325\0338\272\343\332\262\272\272P\3327\301\002\030\273EC\2669`02>\177k{\273\022\031\231=j\244\312\273\030t\2049\255u>\272n\'/7\234\036\3429<s\246\272\257\001\323\274\201\365\352\273\313\350\025:rY\300:\345\217\360\273(\375\001>\210\323W7&\237\356\275+|\352\271\r\355\2409\234c=\271f5\316\270+V\341:\233\2747\276\000P%>\030\340Z\271\"\354\373=\205\020\257;\310\357F7\030\r\272\267\213\347\251\271\372\317+\272\202\335\2379$\374\375\271\243#/:k$\2706^H\216<\022\026\210\267\023\244\3639\276j\030\270m\360\035:EO>\271X\006J\272\311<\274\270\033\037\3269\323\nK\271Y\316\2768\335\301\0209\320\271\354\271\350H\023\272>\006V8\3367\2149\211\022\2017\260\271\0169\006\027j8\014\361o7X\356\020\271]:\341<\247\300\364:\025\367s\272y\245V9u\003%\272\347@\242\271\256\032-\270\203\000\031\272\207`\322<\264\204\215\266\021\177d=Id$>`\333\023:\342\231\3379I\006<:\205\003+\272<\200u\271\314AP;J\350\024:\221\3760\272y\250\277\270\260\317\2547\r\212\365;\200\367\0328\025\277\r\275\010\302\2717\234\345\2769E\n_\271\37076:(\311\177:G\276\324;B1[=vZ\2309\314\235\207\273\031a@9\234\253W:\332\324a\273\246\016\210\275\252Q]<\250\275\224\272\275\025U\272Q&\233\272\230;?77\027 ;H\372B\272\361\302\216;\276\325\010\270G\311\236\272\272\24658\361\021\036:\301\326\334\271\036)\001\273tU\324\2706\323b:\342V\3639\353cW<\371\220\305:\021s\256:\206\211!\27252\2026\232\330\350\2723T\"\272>\346\3028\330\032(\271\342\000\302:\"\211\226<\366\260O\271\376(\027\271\234\316\035\271\014\363F\272k\207\2719\016:\034:\033w\342;F\264\365\272<\005\335\272\276\367\370\272+\240\316\271,\234W:n+\265:s\277\030<p\253\270\267\340\265\2159\256r\005\271:k\3279\302\360\207\271*]\300\273[>~\274_,%\273\354\254\221\274^>]\271\207\354z:\274\364\037;\205\027m:f\201\001\273\024\352.:\243n\275<\321e+9/\006y\273:1\t9lI^;P\202\374\274\376b\321;\224\nl<\344_\332\274\353\250\307\274\354\327\212\274\nB\247\274\266\321\217\276U\337\331\274\270\210 ;6\275\333\274(u\003\27539\276\274\177\347\234\274\260a\313\274\222]\266\274\214\257\002\275\373c%\275\355\335\t\275]\005\256;\354\331\365\274\273\007\023;\231\021\225\274\"S\302\274\376n\313;\036P\002\275,&\236\274\255\017\242\2740yC=\373p\360<B\272 \275\3148\344\274y\263\247\274\3613\014\275+\345 \274\325t\365\274\222*\236=6\034\026< \031\017=\301\021\031\275\'\006\364\274\2742\004\275gWe\274\376\344\374;55\317\274\336u\310\275\013\310c\274\372\030\'\275\314b\264\273\032M\014=\225\346\354=3x\020<\307\274#\276\315+\355\274d,\006\275V\020\227;\'\201\320\274\035\177e\274\273!\221\276\366\356s=\300\316\325\274\351\347\222<.\262\334\274V\225e\274\003\317|\274\305\022C\275~[\367<\310Jz\274K\237/<2Ao\274\206f\\\275+\267:>P\310\017<\355\242\240=\030Z\356<\237%O\273\\]\370<\033\266F<Q\222$<O\254n\274]\000\302<\0103\307<p\303`<Dq\237<\240\222\221\273k\271F\274jN\350<D\267\263<\356\205w= \0043=?y%=\257\236J;\352\354\211<U\266\333\275p\\\'\273\253\311\277;\350\302s;\246\353\004\275s\"\210\274\003_Q\274\210\376\343;\t\004\227\274\215W\231\274q\243\321\275\255S\030=S\307\313\274o\323\343\274\206V\245<\023\203E\274\013\207\201\275\256\t\265\274\305\222\267<\035\216x<Cg@\275\3416\322<lh\311\2741\257\357\275\372>\016=d.\225<\3601t<h\261;\275\r\342q<\343<f=Ev\277<W\026\337\274j\226\263;\361\367\006<T\307\307;C\257\004\275B\303\204<Y$\243<\232x\230\274\310\211\235\274\376\357a\274\225\000\236\274\035\3046=\202e\360\274Wl\210;\365\371\223\274\026f\325\274 ]\311\274\350\014i\274\222\032|\274\342\3259\274P\273\270\274\177G\020\275W\261\355\274\324\005S<\301\222\257\274\177p\335;E\202\240<F\311\367\274\210}\231:\301\301\275\274\301I\206\274A\304 \274\311v4=6\314!=\226|f\275\315\010\277\274\270\334\203\274\\n\013\275uf!\274\332?\227\2740\217\t=\010\245L<\263\324\260=@.\240=\214<\324\274\275\034\307\274kZL\274\307\323j<`>\212\274\364\221\232<\315w;\274\'\215\313\274J\370z\273x|S=\365~\206=\375\366\200<\026S\321\274H\005\r\275\335\320\314\274\300r\030<B\306\322\274\272n\206\273C\007\255=\343\031S=~q\236\274\013\223H<\221\355\216\2741\266J\275w\211$\275`l~\272q\004\032\273!\224\351\2743>\325\274\'\004u\274\342\260\311\274\357\327\242=\352\2144\275\310\374]\274\023\271\353\274\227\276\313\274\372\337\013\275\363\227\276\274\350\225\270\274\354\227\265\274\000A\017\275\271\317)\275\362J#\275\367\2436\275{\337\007\275\233K\306\274\343\3736\275\017\306\334\274\306y\244\275.\271O\274\256\304\212\274\356\322\266\274\313\244\254=\357\261\334=\004Q\204\274\347$+\275t\030\265\274\024\312\'\275,\223\243\274\037\016\371\274\272\327\235=\221\210\252\274\344p\306=\214\365\337=kZ\034\275\260\363$\275u&]\275\032\023!<\317 \332\274\200\007\256=\317jv\274ja:\275~+S\275\301k,\275y\035l=\277\202\210\275\214jv\274\3304\031\275\331I+\275\026:B\275\257sv\275R\302_\274)\347\207=_8\231=\364\246\371\274M\215\241=\274S\301\274\252\001B:\272\205\244\274\373\376\363\272\240\225\307;\325\233\004\274E\333\301\273}\371%\273#v\213\273\2025\237\276\217\256\303\274r\361\3378F\306\274\273\213Q(\274\354LI\274\252\314[\272\315V\215\273cX\352\272V\2035\274\336\224\367\274\214\t\242\274\3258\020;\310h4\2746E8:q\372\350\273=\206t\273\344\314\346\271\347P=\274\267\312Y\274\020\236\276\272`\013\203<_3\320<\320\346\324\273\023\024)\274\\\341\236\273m\013\205\272\2169\205\272\326\354\334\273x\264/=\375\227*;\212\344G;}|$\274\337k+\274\203V@\274\356#\223\274\336\007@;S{\001\274\216\3136\274\330\273\256\273\300^7\274\014\245\333\272\353&4<\021\304b;\270ER9@\rj\2756$\252\273Z\273\267\274Y\310_:\251\014K\274lL+;zF:\276\032\0139=\302\264\310\273\016\306\0029A\247l\273m\200o\273P\223C\274my\022\276\235:\217<c\007\272\273\347Ok<\327BA\274\263\366\321;\344\376n= \031\202\271\321\032\307\272$\332x\274\251\324\316\273\374\303\265<\361\322\r<\211\331}<\024xC\274\217%\022<\322\377K<\364zI;\020\211\347;\004x\221\274\211v:\273\207\246\024=:3\306;\220-\370<*\344G<;\007\267<\330\322\241\272*H\373=\267\277|\275\230\240\341:W\364V<b0V;\r\356Q\274?\354\335\273\024\303\263\274\277\002t\275x\367\234\274\222\007\224=\371\360B\276\357\303+<Ni\272\273F\215\277\273\361s\035<\220\004t\273~Np\275T\215&\273\337\254\022;\033\375z<\370\346\016\276\207c\223\274\251Q~\272\371\201\001=J\212\202<\342T\200\271;^C;\n\230E\274\r>y<\210\004X=\253\321\302\274\243M\n\274\205\352\025=\235\260\303;?\026\000;\374g\241\274\302\276\214;m\204\036<\352\224p\273kT\217\273\021O\277\272\327UU\273\324^\213=\363K\177\274\312Z\253\271\010LG\273\355\353\310\273\367Q0\274\363A\3729J\263D\273Tw\3408\304N\317\273X\321\214\274W\373\333\273K\231f;9\263\333\273\246\351y:\353\346\013\274\312kg\273\257\324\t\272\324\026\350\273\313\305f\274g_B\272\014\031\036\275i\304\303<[\027\250\273d\3150\274E\265\203\273\037\232\224\272\273%\270\272L\237\216\2733\245\272=\026\352\241;\224\231\036=\207e\201\275\361Z\310\273c\234\016\274{\262\222\274;\225\303;<(\254\273\261i-\2747\254l\273\010X\256\273\273\302T\273\265O\365<\327\312Y=\260\245d9\307Q\007\275\026y\027\274dd;\274\310\352\260:\320\021\007\2746\007%;\364\324G=\036<\324=%N}\273\355\376\277<.\002#\273\246\221\010\275U&\034\275\372fp<&f\351\2738}\010\274\0304\313\2737\024\3009\3609\232\273\210\t\374<\237\316\'\2751\311\254\274^k\252\273\215\2534\274n\337\225\274\010\224\224\272$%\367\273\340[\032\270\210nJ\274\n\031\014\275\234(\273\274\247qD:~\273F\274\315\223\227\274C\316\254\274y\rE\273\301E%\275(\0334\274\020\325{\274\206\022\017\273\314a\310<\013\320R=\336\026\000\274\312\377P\274\336\307\034\274\361\310P\273h\372\263\2733R2\274\313\302\005= \366\250\274\373\277;=\207\271;=\274\247L\274\200AK\274\001\210\232\275\226\370\221<\237\200\n\274\263s\036=\347\352\024\272G\237W\274g\200\237\274\001\0339\273\375\211!\274\266\250h\274\263\023K\275\300\336\354\274k\240\005\275\276\037h\274\262n\r\2755[\233;\200q\244<\267\306U=\227\220\003\274\250u\013=\031%\375\273\210\033\3737\002\316\206\273}\205\3039\336\304\203\273\rS$;\337U\221\272\022\274A;/\225\'\272}(\207>\277\325\245\273\017\0069\271\246\016x\272\273\241(\273\357\3321:\212|6\273\\\215?\272\231\016\010;\245\235\240\272\034\373\366\271\0001\276\272\214\241K\273\243\032\r;\021\253\233\272\234a$\273\363\355=\2738\365,\272\\8\366\272V\362\272:\223S\3659\006\246&\273\205nQ<\013t\t;\304\036i\273\030\276K9\306\313\231\272\251\260\256:\234\236K;\343=\322:(\322\310\271$+$<\334\237\006\275\007G\322\273\207w\270\273YU~\273e\374t:H\246\027\270\0076\333\274\000\345F\271\024\312\016\271\3267\0039\346|\37590U\023>\324\241\221\271~]\353\2752\3017\271\364\010F\273W\250\206975\377\273\252\017N;\273\350\223\275\020\351\341;;\217/\273\330\236\006\2740\331&\272\325\377\265\271g-6;\264m\346=\3034t;o\330\267\273<\207\302<*\023\315\274Y+\333<\313c\001>\211\253\264\273\222?\372\271\354\215\'<\2257\215;\036\366\3179C\374;<\325\235\251<R\255\253\274\036p&\272L\201G;\301X\245:\252\275\353:\021H\347\273W\003m;\030\244\375<\337w\0079+N\351;3\261\000\272\271w0\271,\275#<\256O;=Xcc\275\220\2356<\034\301V\273\350\002$<\'\207\n\272\211fG\273\025uL\274\355O\203>VB\315\271\0141\005>\231\000{>\t\037\257\272h\207z;\035oK:\033\364\215\2738HO\271\370\026\206=k]\224\273\010\003<\273\006\023h\271\257BY=z\2028>\"\260\264\267\037q\316\275N%+:#R\254\272\260\211n7\252\272O:\002M\243<\260#\017\276T\213\212>\0270\323:\236\327\271=D\336\235<\210\326\3018\256\014`\273n\203\2558\224\344e:\237\256\3509#M\237:Bt\3379\032\013\025\272\030\261\243;\031\364p\273R\221\370\270\341\235\013\272K\231\r\273o\372\3639d\355\361\272\216\331\217\272\217C\2439\313\033E\272\207\344\3158\261\325\014:\367+\2159\221\226G;\211\332\260\272\3421\t\273+\317\247\272\310\316\207\272c\267\251\272a\373\264:\244\233=9\205\260\250<CN\212;\322\026\204:aU,\273v\234\247:\365\t}\272\371\252\231:\314:\001;\000\337}\275\321\321\324\271\036\364U\273F\351\023>\276,S\273\032#N\273\373\246\206\273\327\3272\273\306\345k\271[XX\274@\324\0029n\346\310:g\204\022:F\261\303;\026\376\214\275 \003H\270\345$ \275L\234\274\271\277~\320\272\337\253X:\224\372\231\273\223F\362\272IC\272;\032J\306\274\321{\326\272\215?\023\275\302\366&\272\t3\034<\343o\264\273\001\254\366\275\272\004\343<\256</;\264\374N:1\365\025\273\253\251_\272\202\223u<q,\312\273\004\245f;z\3148\272\302\254\337\273\316\026\212:i]\207;\177\311\351\272\316kT;\347\364\256\2726\3301\273\352W\030\272\264\250\017<\350J\362\273\251\226v\272m\305\332\273\271\324\205\270\371\323;\274\373\312\350\272\022|\267:ny\3369\211\257\225;\217\000*=\017\212\214\273%\276C\273\037\020\013\273l4\361\271\2540\213:\337\375\207\273\364\277\225<\326\360A\274\212Q\005<s!m:\363:\376\273\004i\311\2736\240T\274\377\247&;\240\367\2079\346dC;\td\005;\364\241\0279l\226\251\273Z\335\016\274E\312p\274$\322\326\273\236\344\\<\332\267i\271A\210i\273\224\375\331\272\016\303S\274\350;\316;\207\224\010<\250\213x<;\027A\273\334\265d\273\220I\335\272\237\222\221;\315\213\332\274,\300n<e\250t<$\031\031\2752\300\014\275\207X\324\2744\346\024\275}K\031\276Bib\274\301P\242;\331\224$\275K\204=\2757I\246\274%5\004\275L\r\025\275\343\002\017\275\200\334%\275V\003\030\275\321\231\n\27544\007<\202\0004\275\253\306~;\256\252\377\274.6\026\275M\333\365;pv*\275p\311\221\274a\"\340\274\033\t==\254t\007=~\334\245\275\036\347\026\275\363?\347\274t\016F\275\254\314\214\274\357d+\275\3723\277=\000A7<\363\267\244=v\306\263\274\026@*\275\236\200,\275\224z*\274\265G\025<\266\263\021\275\243s|\275\317{\275\274\365}C\275\270\232\242\273q\320\'=\253\205A\274o;\207<\272w>\276\200\036\021\275\360\254\345\2741M\366;\373\367\253\274\304\374\311\274%Se\276\005\202\205=\247\351\030\275\274\265\3669\377\347\027\275\272\354\237\274U&\207\274\014T\024\275\036V\010=\210\246s\274v\375\n<\"\353\307\273Zw\371<\261U\351<N\002w<.\303\250<\271\n\313\274K\231\231\273o\177\272\272\220\367><A|\t<\376{j\274\302;\352<\216M\306<;\226\317<\300\203\315<Q*Z:k \240\274\376\177\010<V\320\361\2736V\212=\344\005L=\224\256\312\273\211\213\256;4\357\006>VA\212\275\350C@<s:\001=Z\t\313;\230m\014\275g\000\323\272\333\324\254\273T\233\021>)\026\027\275\356\036\233\275S\332m=4E\033= \323\321\274\020\020#\275A\356\313<\323\022o\274k\231\375\275mx\006=\0060\330<=\313\353;\361\375\357\275Bh\244=J\035\022\275\222B\200\275\363%x\274\200\241\370<\025\013\262<\343\213Q\275\260\0338<E;(>\024\306\022>\022\207\343\274!\023\026>B\241\035<+\324\022<\274\256\006\275x\243E<\037\006\262<}\310\365\274\326\\\355\274\345b\255\274\275\323+\274\342\022\342=tZ\315\274\177\337\374;t\251\324\274\t\213$\275aW\276\274\353$\321\274\370\311\277\27462\261\274KM\375\274\027\022\020\275UU\017\275\367\375\230<S`\001\275mv?<\270HH<\320\246:\275\207n\3519?\234\001\2759\355\200\274\005{\200\274\215\374\262\274\032\300\202=\367\205/=_1\326\274\030\220\272\274\247\300?\275\255\027f\274\034&\322\274E,\3769\200\252x<-t\262</P-<cr!\275\277j\017\275\\\020l\273\316\220\220<+\215\310\274\250q\210=\222\032\210\274*V\010\275\334\212S\272\026\247\"=u\357\364<)\222\272<\276\307\325\274S\004\"\275\226\002\302\274\324\241b<\002\250\310\274w\020O\274_\354\202=\\\351D<\311m\361\274Tr\310\274\370_\315\274d\220\335\275xx\222\275L|\230\274\356U;\274I\034 \275f\372\032\275\031\362\313\274\205\n\006\275p\212\312=|\355\035\275\366\027@\273\314\334&\275\325\305(\275\313w\033\275o\243\022\275e-\014\275\370{\r\275\304\2734\275\371Z&\275I\255)\275\036\005\234;v\314F\275\246\366\240\275\367f\213\275X\321*\2750\304\240\275\360T!\275\324<\327\274\361\250\363\274$\256\344=\334\336\252=\223\257\215\274\302\251\350\273\177\300\017\275;>b\275k\'\227\274x\322\034\275\205\336\315=\025\277\203\274\276\n\020>\035a\020>0jS\275\325\207T\275*\\\336\274\025\211\226\273\341\210\023\275\2004\333=\252p\250\274e\246Z\275\300\351\222\275\252V\037\275\306\205\312=\300\300\367\274\201\021\302<L\303\256\275\321\325\024\275\315R9\275\316\007X\275Zh\310\274u\016v=>l$=\374\273,\275W\333\275=\250}\377\274<\000\201;\312\007 \275\261\225t<\221\275\032<\315\305,\275<P\013\275\372=\351\274\360\204\261\274\266\177\033:\211\t\237\274=\333\267;]U:\2757^>\2753 \224\274\325\233\023\275\010]\022\275\365\357\032\275\023&#\275\365\263\035\275\303\273\022\275iw\376;\335\r/\275\215\373\213;\000i\355\273\2418!\275@\300\347;\306;\"\275\340\313\251\274&\357\342\274\241D\005=\214\275\340<0\276\367\274(\210\017\275\271\037\326\2741FQ\275\260\277\245\274\203\311\033\275\241\211\262=\307\0331<\030\001\307=\254Z\213\274\332\236\025\275\240c\002\275\267\350\310;IN\001<\223\247\024\275^\263\336=\366\0023\275{\0303\275^\331q\273\361F\"=?zA=\202\224\215<\025z\230\275Y\010\023\275&\225\356\274\334\022\373;\021\013\210\274t\225\360\274\235\177\034\275MM\214=\266\303\032\275\242\237X<\364\246\017\275V\375\230\274\035u?\274\366\362\004\2767\235\307<B\037\350\274C\214\302:\372 \'\273Q<\000\274>V:=\0370\242<+\222\224=\306\212\224=?\006\016\275\241\354\217<E9\r<\323L\004;\220\373\265\273\272F\356<wE\t=+G\354<\320C\307<jX\264;\374\241\243\274\264xz<\325\374\274<\254\031\337<\341(T=)E\035=\255\322\t;~\303*\275\344\373\021=(\352\013\275\341\275\246<d\022t;\005\243\010\275q\031\341\274\2765\017;V[\272=\266=\203\274\302-R\275\302\316\266\275\241#\022=Ne\277\274/\0043\275\034\337\275<\260\320\213\274\202B\263\275\356\010\256\273\257z\333<\352\300\022;0*\373\273\306Q\325\275\241\215\025\275vI\332\275\214+[=\331\036\005=\\\345\262<\006/U\275l\217\206; @\014<\243@d\275\331D\341\274\272\345$\275\223&_\272\377\234\t<\310\032\004\274e\003\273\272\362xv<\030\242\n\275g\"\356\274NN\301\274\310\025\363\274\202\203\261<%\026\267\274&\t\021<\374\240\375\274\232H/\275\346\031\251\274,\224\353\274\305]\303\274po\322\274q\276\376\274%\263\014\275p\315\017\275J\246\224<R\354\370\274\255\322L<\204\242\220\274\355-G\275\323\024\014\272\'-\374\274\"\250\316\274C\303\202\274\362\270q\275\232\200\2729`Sp\275\377\"\220\274>\347\260\2746\321G\275\035cv\274\343\202\301\274\r\261Z<)\251t<\343\2568\275\356\246D\275#\326&\275\275~\014\275\310\236\274:\014\254\200<\217\216\316\274V[\224\275c\317\200\274\003\372\002\275\354n0:_\225\007=#\356\002>\203\360\275<\3311\374<\225\005\"\2759\263\315\274Tad<\225z\261\274\350\000\231\274W\354\370=\177[%:\023\022\373\274\003\215\003=\004O\312\274x\201T\274m3\307\274m\311:<s\334\200\275f\346/\275\035\243\033\275oH\356\274M\302\320\274\014\353\307=\357\210\026\275m\001\314\273\247\0143\275u<\035\2750k\022\275\325\234!\275r\315\337\274\373.\027\275m\2211\275\204\254$\275\032$.\275\001\010n\275\356\000K\275\240R\236\275\300|\353\274\220+8\275\323\007\215\275|7{\274\025\302\255\274c\333\365\274q\223\330=d\316\004=\364\300\224\274\235;\223\275\373[+\275\026\363l\275\314\306\355\274@\247\031\275\377X\272=m\216\233\275\326Y\026>R\035\026>D]]\275<yM\275\262\301\303\274O\376Q\275\006L\025\275i\251\311=\341n\260\274\3062L\275\352\304\244\2758\000X\275\363\340\262=\216K@\275\376\357\210=zaK\275\265H\023\275mHh\275\"\0265\275\222\210\362\274\304\357\214=A\"\273=\227Z/\275S\317\232=\320+\340\274\350\221K\270\327\231\221\274\207\223\022\273\n\367\204;/\302+\273\022x\202\273\315\271U8\344}\037\273\2222w\275e\200\311\274wb\2049\321\025\r\273\255\272+\274B\315\027\274\253\323\215:\021\341A\273-|\276:\325\330\373\273W\003\322\274U\323n\274zC\333:\'P\t\274m\320\r:\212\344\351\273\367\252\260\272\007c:\272n|\033\274\016\225A\274\254n\0327!9S<9u\333<&\327\346\272#i\347\273{M6\273\245\370\005;\255\315`\272\241I\214\273\007\317\021=\353\017\352:\332\021\320;\362\245\214\273\264\342%\274;\240.\274Xd\250\274\304n\006;\211c\267\273\376\004F\274\211.j\273\025F\022\274g\206\032\272\020\343\200;\256e\210\275\014Rd7\332\224\211=\260E\022\273\221\320\233\274\312MJ:\364\3129\274\304_\210;\007\033 \276\236\235>=\2720\317\273\254\014\250\273Y\334\030\273\351\0145\273c\374\357\273\212\325\250;\232\245\211<\251i\241\273\241\241\252<\264\273\202\274$\230E<\213\006Z>DT\262\273\020eE<1\251\236;1WL\273\326\274\306<p#,<\365b\236<\314q\220\274\260\274\220;\373\352\032<Q!D;~d\251;f\240\247\274\250\271\021\273\033r\211<\343Rr;`\271\245<\274\246Y;\362\033\205<j\025\340:7\342\022>\225\305x\275\r\3232<\244_\020<\235\032\361;\327\205\304\273\353\255\003\274\250\242\304\274\261\266\242=\336s\222\274T:\200>K\332\352\275\230I\320:\351\202\010;\240\335\351\272\357\350\002<(\334j\270\376\262E=\261 \300\273^\233L\273\24766<\265G\337\275\346UY>9\257N\271gX.>\307\002\030<\305s\324\272<\2701;\0173H\273f\357\222<\347\264\357=\274W]=\342\210\230\272\330ou\274<\334><\260p\204:\035B\225\274b\250\365:\336\365\r<\3146;\272\315\2479\273\347\027>:\235\274\334\272(j\332<FSv\274\034\250\031\272\0145@\272\331.\271\273q\346\005\274\370\340\361:$\314\363\272)\334\362:\335!\214\273\006F`\274q\027b\273c-g;\365z\215\273\3616r:q\305\010\274\227\307\022\273\013\r`\2722/\264\273\210\3114\274\337}\013\271\r\223\205\274\336\372\303<K\013\234\273\216\253\341\2738y\367\272\001\260\266:\177\251?\272\037\260\237\272\313\223\310=8sg;\327\315D<\336\247\275\275\205\t\274\2736\226\341\273_\347\231\274t\037\233;Fmr\273\267c%\274 8,\273\302\257\214\273_\377\354\272=\031\242<\021(\234<\327\037+9\222\021\207\275D\361G\273\t\241\027\274\206e\262:\212\225\366\273\366\036O;@k\004=^l\332=\201\325z\273\337\251\226<U\326\320\272K_\242\274\023\226\021\275\r\263\275\274\214\267\273;U\302M\273\255\370\204\273\317\022@;\220e*\273\217\"\247<\346d\034\275\326\362\310\274\220]\342\272\033\327)\274kY{\274\"\265\353:\377\342\312\273R\337\205;\027^\021\274\241s\366\274\252`\214\274\332\322\215<,nD\274I\037 \274|R\201\274n\375\256\271\207\245\371\274\0006\001\274\273\273Z\274\334\236M\271\243_\234<@dc=NH\025\274d\234\r\274oZ\344\273@v\001;\257\307%\273^ \006\274\255\303\020=F]\225\274\344\311\300<\030\027\363<|\237E\274\000\371,\274k&\246\275Dm\363<\254\202\312\273\226n\301<\243f\023:\330\340!\274(mj\274\310\300\243\273O\341\263\274\376\200\342\273It[\275\204\275\234\274\262\265\322\274v\313\312\273\3025\322\274b\237\001<z\003\206<?\300`=;`\356\273\321\213\256<U\002\300\273}f6:-\034\231\274S\213\251\272\020\217\302;Z\321\313\273=x\277\2731S\215\272\374\376\235\273.\241\033\275Bp\267\274z\021\2419\232a\305\273\206\3655\274y\205B\274\210\306(8\020\243\221\273W\213\r\272\035\347,\274\306\252\333\274[\315\217\274\354\252\360:\231y9\274\032\253\3239\"\273\325\273q\321\232\273\245\034\266\271\274y;\274\0016P\274\305_H\272\311\236X<\007\027\316<\255\307y;\201C5\274\n\027\236\273\373\022U\272\347WS\272L\274\340\273\276\023\'=\346\004\n;eY\354;\272\200}\274C>2\274#\315?\274\231\250\223\274\177o\327:\334\331\366\273[zE\275n\031\250\273\226\353:\274\027E\223\272\240\004\035<\336a\264=\253\377\0349~{\355\2751\010\243\273\200\216\253\274b\311R:\370ee\274\353Em;\335 !\276\032\t2=\026\317\344\273\254/\322;}.l\273\376\346V\273s\2144\274E|\276<E>\217<\2706\336\2732\240{<\277\274y\274\262O\267\274<\207\354\274u\251>\273+x\357;w\303\356<\371\'\013\274\004*\276<Nr!<.\342\233<\270\370d\274\270\021\021<.\240(<S\342\003;\255U\317;\300\271\232\274\277\245 \273\003\226\264\273I\013z<_\246\002=\325\230Q<\214\024O950\3139\373\307\022>\2705r\274\3675\240;\374\322T<\201\257];\302\224[\274Kv\t\274\236\"\270\274\302\017\332<\264\206\225\274-\3063>\260\305\030\276\351r*<\340\244\275\273\225m\245\273\0064\n<\242\206n\273\361?\n>=\343\025;\351\230\351:r\312z<hf\260\275GL\000\275\360\371\237\272\216O\252=\320\325#<h\r\272\271\353\n7;A\362@\274p\001\205<\007\207\003=\212\370\242=\247\365\002\274\nA\342;\244\t\020<,\024\355:G\177\230\274h\330\345;\257\373\"<\352f3\273\366H\216\273R\264\201\267\213\305u\273<\312\310<\016\217\217\274kgk\270\231\330`\273&\215\306\273\310q\"\274u/\205:1pO\273\332\344\221:\330k\310\273\201\331\202\274\352\235\313\273\010\241`;$x\335\273\206\203Y:qi\005\274\262\313\210\2739\263J\272\237\254\352\273f\002M\274KZ\313\271\203\'\200\2740\"\245<\202\320m\273\014d6\274J\262\204\273A\204\222\272\317L\344\272I\274\220\273A\tR=\\N\227;+\321\035=\377\262<=u\032\317\273\022\355\010\274\223\315\225\274r\230\244;\376\004\245\273t9\341\273\003\372`\273\224 \264\273S\363<\273ef\006=L\217y<B\267\2049(\202\035\274\023\262\023\274C#;\274\300[\271:\n\364\034\274\272RT;\236\000U=\316\257\253=\350~\215\273 r\341<\035D/\273\215\302\321\274\265\234\377\274\177\332\275\274[@\3578\010\245\321\273z\003\310\273\246\220\346:D\024\260\273e~\370<\326\363\030\275P\372\243\274\362Y\263\273\203\3726\274\344\210\213\274g%&\272gs\367\273\223\342\266:\354\223@\274wE\374\274\0348\247\274u\276\r<\305\203O\274L>\211\274[\371\241\274eI/\273\267\373(\275\344m\"\274`(_\274\306c\332\272\014\313\337<la\\=\006\266\030\274\224,L\274\254\r\024\274n\241M\273\264\214\256\273F\2276\274q\371\023=\232<\230\274:\212+=\236\3041=\312\021X\274\341\235P\274\355Z\234\275\222L\314<\241K\002\274\tz\022=\315\231L\272\376\232Y\274@\243\214\274\203\022\007\274\220\222\020\274\372;\376\273\016\2173\275\230\321\321\274\346\351\355\274\353\221C\274\335!\016\275\003\330\303;\037\332\275<\034S9=_\357\023\274?|\r=\r\010\007\274`\217\217;\235H\255\273{\325\237<\232\224\312;RX.\275\245A\t\275\346\264\004\275\221HI\275c\213\301\275x\335\351\274:\376\340;o\3749\275/\320:\275@\226\252\274\301\210\037\275ij\023\275]>\035\275~o!\275Bm&\275s\233\031\275\325\210\021<\237W+\275\223\254\255;\3247\243\274D\325!\275\372\251\260;\032\240\030\275-\240*\275\022i\373\274#K\210=!#\325<\202\331\333\274d\022\257\274\346\265\314\274Q\242\\\2757\365\267\274\213L\027\275?\345\300=\354\021A<\0359\257=\222\037\310=\220\306H\275\312\303L\275B\177\325\274{g\n<!\n\023\275d\346\365<+\202\033\275\027\024/\275\374/\377\272\307\354\020=\233MH\276]B\225<Rdj=@\304\r\275\233\337\003\275\216\361\010<\217k\226\274\021\036\007\275\n\264\263\274O\316\231=\336\004\034\275\254\"\227=\031\367\013\275\355x\242\274\361X\200\271n;\'\276\372\211\253<\300\264\221\274A(:;\321z\331:GH\007<x\3015\275Ar\301<H\252\177=\353_\223\275\376\036\234\274\241\316H\275xT\354;\314p\013\273\223F\313\272\241\341\346<\023l\005=a\243\326<G|\325<\332./<x5\261\274\032/\224\275D\027a\275C\034\223=\220\177L=\023\200\022=&\347\032\273\264\206\251;M\273\236\2743\t\342<\2556\311\273\016\220\037;\026\017\t\275\334\214\333\274\273l\030<L\031\000\276\365tt\275Xt\016\275S\353\031\272\350S\013=\005\006\270\274\300U\032\275\003\352\305<&\030\203\274$\270\300\275\240\034Y;H\325\276<j\357\205\273\323K\014\275&M\305=\306G\034\275h>\323=\356\362\257=,)\001=\266\305\277<\312\312J\275\204\306\261\272\006\014k=\275\261\301;\014M\336\274\220\324\332\275\027\355\254\273YY\033<9$\035\275\213\014\324==\276:<\207\322\020\275\367\315\353\274\350y\325\274k\230W\274f\254\024=\252\247\257\274\274e@<\255\312\320\274\324\0200\275_\210\265\274\235K\002\275\322\004\312\274EO\337\274\325O\002\275g\t\021\275\215\341\030\275C\030\234<^\'\363\274\312\231e<\344\037\250;\347\351D\275S\231\n\273\245\264\370\274\035*\031\275\267\024\230\274\364{~\2758z\327=\304P\206\274\327\377\354\274\267F\257\274\346QQ\275_\265\210\274\007\033\300\274\254;|=2\304\200<\254J\353<\266\317\377\275\020\365(\275A\265\003\275dq=\274\034\376~<\007\346\325\274K\033\177=\216I$\274\022O\004\275\313\262/;\253\260\266<{8\356=v\000\276<\332\007\350=\256]\026\275\354\240\346\274GFr<\247D\267\274\3176\276\274{\343\247=\311s\031=\267\221\001\275\035^\260<\204S\315\274\310\244\217\275\337hD\275\215\030\212=\247\273[\275\212F.\275\234&\031\275&<\003\275GNf\274\036\007\335=e\324\034\275\357l^\275\'\275Q\275\036\205\354\274\250*-\275\222\202-\275\333\001%\275\307\377\027\275\213\'1\275f\305U\275y\006K\275\306\026T\275?0M\275B\204=\275\000\210,\275\240\007=\2759f\205\275\034@\236:\277o\025\275\255(\006\275O\211\336=\340\201\320=?&\230\274\315\211>\275\376-+\275\305\370x\275M\252\217\275\323+\'\275\222V\265=(\331\366\275\017R\350=\241\221\">\310\344l\275I1=\275\0008\375\274!\257p\275\332j\023\275\271)\361=\020\232\276\274q\237J\275Q\207z\275\272\206Q\275\204U\331=zy\313\275\267\244\202=8\310\225\275\003\343%\275\372o\231\275\231\2503\275\301\315\n\275>\234\237=i\241\320=\300k1\275\253\362\310=\327\237\320\274!T\217:\2272\217\274I\213\3319\036\347\332;\273\033.\2746\252\010\274\252\336\231\273\026v\374\273L\313\"\276\207)\227\274F\224\2329\324\352.\2743U8\2748\3302\274\2671\034\273\365h\333\273B\013\265\273\000XX\274\242\250\313\274\301\371\231\274\247\210\325:\347\254N\274\004\236\002:\215\335\030\274\353\305\031\274q6\243:\005\351K\274\377\205=\274\230\232\037\273\342\314\216<DH\326<\205QT\274:To\2743c\325\273\323\350\360\273&\313\352\272\017Y\014\274\254\3311=\212Q\r;L\275L<\013\216\321\274\347\031h\274\247ik\274\261\025\013\274M\360\010;\017e\032\274\377\307\221\274t\302\354\273h+p\274\t\301\025\273\237\314\216<K\246\013>\353oR9\357R\323\275m\313$\274\027*\245\274\\\277y:= l\274[\244\006\272\360\260G\276\303\275&=p\363\014\274\032K\205<\216\212\301\273u\031\206\273\305\021I\274?F(\275\013\351\202<\224Z\005\274;\000$<\316)+\274B|\000;J\265\270=\222\227 ;,\230\247;aM\253;\316^\025\274\354\252[<P\267\020<\373%e<^\024\027\274\\\211W<\343Et<\330\374\370;\306\355\371;\034zt\274j[\'\273\275\013\371=5I7<\354\360\013=\245\251\264<D\230\254<I\255\332\270\201-\376=s|\021=\020H\2438m\214\216</>\331:\247\033\233\274\340F\r:\317X\233\274CO >\366\023\177\274\342\212\202\275-?\027\276\215\332\222<\231y;\274y\255K\274\022\023\025<\253[\331\273\266t\003>E\247\256;\322U\031<w{\207</v\245\275\000\001\200=X\263\224\273\023 \016<8\232o;?3\230;\344\311c;k\325\265\274\251gK<#\203%=pf\345;\315\030d\274ZQ\213=s\304\302;3\210\007;\203\241\206\274&\223L<*O\033<\334\276\255\273[p\270\273,M7\273\275&\322\273\371\367,=\010?\211\274\250\0263:\211\321\324\273\246\200\351\273o3!\274\223,D\272\223\363\230\273\005\262\330\272\351\345\001\274B\n\204\274\224\301/\2746)];H\016\014\274\035%P:\024)\253\273M]+\274\t\203\205\271\215h\002\274xrJ\274\241\332\224\272\305\022\017\275t\343\225<\036\306\265:h\327h\274]/\266\273\237u\357\273V!`\273\217\330\316\273\226)\255<\222\304\253;\212\024C=!\342\367;\306~\020\274\tPI\274<\022 \274\271\275\270;\203\275\314\273\242C\'\275\235d\242\273\274X\344\273Z\216w\273\245\"\035=k\250\013\275\240x\336:\362\"\350<\377=\205\274\026\302R\274/\324\014;\265w?\274K!\360:R\263\202=\354^==\235y\263\273\025\362\370<4t\233\273\031d\000\275\347g\344\274v^\231\274\345\313_\274=\250@\274\014\013\007\274\331\\\270\272Pb\t\274\312\231(=\233\370\n\275\316![\274\026\024.\274\312\262n\274m\300x\274\254\257\210\273`\362\034\274\307\237\256\273\274\tv\274*\334\344\2741L\265\274\215l\036\273/&l\274\022\215\271\2743\266\320\274\002\223\016\274\341sE\275\221$@\274piV\274z\303\210\273Zj\023=\234%3=\340i\023\274\262~\201\274\321\377-\274\274\320@\274\336\251\031\274\"\226\\\274\'\244\030=\3342\212\274\362-{=e\372k=\010*\224\274\010R\225\274\325\242T\275\013\333\024\272\004\337-\2748\025I=\321f\246\2735\252\215\274\270E\272\274\210wd\274m}J<\\\312\341\274t\214\205\274@\327\n\2759\006\353\274\345\373\251\274&A\032\275v\212\251\271\316S\366<\223\205\020=\031\240D\274Q\310A=\210]+\274E\303\035;\032\357\230\274\244\326\246;\356\365\020<f\013\321\2746\201\265\274/\230\217\274\326\313\303\274\327\244#\276-\226b\274\006\222F;\000{\326\274\2323\355\274\272\347\202\274\036\237\235\274l\310\235\274\365\025\273\274=s\322\274\250\260\373\274\r\320\360\274]}g;\313\202\300\274\255\245\220:\311\377-;\355\351\334\274\177\261\315;\2364\315\274\325\215\237\274\260Kn\274R\303\203=`\374\331<l\264M\275\210\355\346\274gTd\274.\273\007\275.\265@\274\375\357\246\274\330\337\222=\302\371\352;?\320+=#\034[=\300\251\374\274V\274\332\274\365TL\273\255\252\230;\021J\251\274w\274B=\364\244b\274\343@\367\274\013 \226\273WN\005=D\036A\276\227^\001<\224u\331<\344/\343\274\000\350\245\274B\324u;\271\246E\274\337\351\202\274\234Q\023\276/\270K=\314K\271\274\310w\250<\255\322\265\274=c5\274;\"D\274\374}\212\275\tb\246<\212\364\227\274\362\237\261;\311.\226\273:\030\307=\371:\343\274\027R\201<\'\267\210=~\027\217\275\250\303N\274)\2057<\215u\354;\347\017<;\213\330\022\274|\266\323<\306\031\336<\244\263\271<\272\003\201<\250\362\376\270\276\207\030\274\033c\341\272\277\254\260\274\302J2=y3/=\202!\344\273/\235\026;\337\260\014>\373\274e=4\320\026\274A@\372<\023KY;\356\257\000\275\312\257\224\273Yw\000\273\366F,<\030\264\251\274u\330\001>\272\224\272=\307\266\002=\365f\250\274\213\262\023\275\3751t<\006\371M\2743\373$\276;\334,\275\373|\323<\010e\035<\206\207\334\275\032\326\330<ea\271\274\370\333o=I\315?\273@ \301<\\5L<WY>\275\265|\205;\331{\210\275\t\275\205\275\351\327\313\274\353\246W\275D]X:ld\227;\225\317\212\274\235IB\274x<G<\332\275\224\274,\243\203\274\364\370a\274P%g\274m\360\206=\211\363\202\274\363Q\257;\314\274\224\274\344\237\334\274g\247\210\274\032\315c\274\0304C\274\214\022X\274\201\232\226\274sH\330\274\205}\317\274\346\023\037<\331p\177\274\036\274\232;\nr\231\274\nm\014\275Uo\216:\201K\230\274@\223\207\274\177\321\322\273# \265<\000\310\341<\013w\277<\354\272\311\2749\2207\274\362\241\005\275\235b7\274<WM\274\374\034Z=\312\267;<\356\273\232;\306\267\r<>\230\336\274\002^\335\274y\341\322\272\3547\035<\023\377Y\274\355\314\273=\224O5\274\177]\233\2746\263M\273\317\312\377<\277\017L>U2m<\224\241\342\275\345\322\013\275My\207\274!y\000<g1v\274\277j\361\273c4\220=\322/\321<\253\220\216\274\327\243o;\364\223{\274Z[b\274\310s\245\274d\373G;VWA\275\235\007\341\274j\323\277\274\225\267z\274-\345\315\274\365\324\217=\263\363\306\274q\300\334\274\352\204\353\274\302\220\362\274\317\372\304\274\230\336\301\274\242|\265\274\302\263\276\274L\027\350\274\200\336\374\274\342\315\n\275\363\255x\274d(\t\275\251\334b\275^E\363\274]\021\001\275\266r}\275\241o\242\273o\203\205\2747\336\213\274.a\257=\303\036\207=\327\231\\\274u\r\222\274\246\274\226\274\336\243\"\275\321\230\365\274X|\320\274|}\210=\352_M\275\n\312;=\215\265\330=\256\301$\275\t\366 \275N\217\253\274\231\3478\275\325\216\264\274W+\254=\257\247A\274\222S\016\275\2002J\275\307\214\317\274\302\365\202=&\363v\275\013N\244\273\241]n\275u\322\332\274\343|(\275ir\013\275\221U\205\274\"\231==T\374\177<\345\360\341\274\277\004z=\336&\254\274&\357\213;\353\217 \275\266\347\203<\007\353\322;\234b<\275\0177\023\275n/\004\275\363\216\332\274\224\362,\273.\'\006\275;\216\327;\201\223G\275\210_D\275\344\231\255\274\263&&\275\331=\032\2752\203,\275>g)\275\346\3151\275uf)\275\342\333\377;3P3\275l\336\201;\235o\274\274\007\031)\275\337\230\361;[\r!\275\374\031\356\274\2077\373\274\314\027E=L\007\314<\222\271\220\275\tP$\275\211\332\324\274\353\035`\275?\027\304\274sm\035\275\231\261\275=\247\264B<Y\315\302=`kR=\245?7\275)\001U\275U{\253\272\224\\\343;\016\177\035\275*\221r=\'\200\r\275N26\275\"1^\273\316\000.=\272\221\203\275\351\216\232<\335I\023\275\251\037\030\275\236\263\004\275l\036\377;\3175\204\274\231E\017\275mz\303\275\004\205\220=6\177#\275Y\261\210=\206\333\025\275\242\350\241\274\330\264\207\274\002\225\244<3\033\251<n\337t\274\202( :{_7\273\332\315\247\275\025\322\222<@\322\262<_s\233=V\324\201=\321\222\035\274C\004~\273\"\254\345;\214\261b\273pa\214\272_\314\374<\312e*=\210\036\373<\3454\313<d\016+<g&\255\274\366Y\'\275\027\004z\275\205\371\243=\315\256X=\253r \275\254F\237\272\371A\224\275\263i\272=~\336#\275\303?i<\362\243\317:\261\234\013\275\246\331\267;\177\213\010<w\023\327\275W3\315\274\001\337M\274\010\316\300\275`x\024=d\223\275\274\303d9\275F\317\271<\306\034x\274,\341\217=\253\021\355;\277\333\364<\336\333\235\272\241\375\332\274\302gS\275\233\236\037\275\311:q<\346\266\310\2744\365\r=\320s\272<\237\331a\275i\255\224\272\230\315\221<Z\363e=\231i\351\274\327U\235\275\262P\236\273\357\352\025<\350\321\020\275\200\2070=\211.?<\220Q\031\2752h\370\274\215G\333\274\t\271\030\2748G\334=(c\274\274\325\032-<#\205\377\274\301\337<\275`\224\273\274\257M\006\275\371\003\317\274\336\353\356\2743\230\006\275>[\032\275\351z \275\037\322\227<\023\222\375\274\'_W<6 .=S\346T\275c\357V\272\340Z\001\275=,\263\274ev\217\274\210\303Y\275X\373\005=\345\205r\2748\014\363\274\347\"\261\274\\\346S\275\014\222\230\274\247\276\300\274\242\276\031\274<\242\206<\312lI\275\260\027x<\033u2\275\361d\t\275\316h\257\273\317\007t<\222\t\336\274\202\324\235=Dc\033\274;\024\010\275\316k\266:\340\302\030=\nIe=\250\351\307<\214q\340<|\222&\275N\236\344\274\025\300l<\322\305\270\274\023\311\302\274\270+\004>-\n\307<\206\\\007\275\346\307[=\3548\330\274\233S\274\274\227\320)\275c\313~;\347\267D\275\211aA\275\\\004#\275I\340\010\275\2527\342\274Kv\306=\203\r\346\274&\332.\275X\201@\275\250\'&\275\302Y \275\366\0034\275>6\013\275\220@(\275\316\2428\275\323\347B\275\345\201N\275\376N3\275m\212[\275\263\"\203\275G2\224\275\221\036G\275\233\352\206\275I\037\224\275|\\\311\274-L\006\275\333h\342=\275\345\330\272\360J\253\274z\217\260\275\322A\004\275\231\322{\275L@\203\2754!\"\2750\370\237=3\232O\2741H\353=U\n\035>\261\304_\275\343,V\275\365\364\341\274@\020\377\2747\035\036\275\331l\344=Km\274\274\002\030Q\275\231R\251\275^\314s\275\304 \230=[\236\262\275\226j\213=\222B\257\275\004\272$\275\306(\303\275\345=2\275\370\353\017\275^%\271=li<<\022u9\275\024\314\243=N\212\346\274\212\317\304\271\314\314\005\274\363\207\366\272;\003\025\272\020M\327:\226Y\2038\333\206\177;\0078\034\271\227\3665=?b\202\274\020\327f:\336\023\274\267\212!7\273V\037y\273\264\211|;1\334?:\263\350\n;?\251\016;\354Nw\274\322\253m\273\321\207$:\306.\006;\244\365\3479\016\261\324\272\316\257\3759\276\205\252\271\341\310\275:2\315\314\273\n.J:0\243\220<0lT<\002@\360\272\326\234\316\272\244\354\320:\362\3128;\330\311\260\271\374\373\022;\332\300g<V(k:X\374|;h\337\230\273\343\210\260\273\211u\203\273\201L\372\273\002\247x:T_\340:\275\2409\274\310r\337:6Iw\272\324d\010\267\250\326\2618\353S\227\275t\036\324\270\245I\203<0\241i\272R\205\316\273\351\262\000\272l\215P\273\354\214\205:\365\375\033\276n\317\314;\006g\270\272ao\027\275\3153\321\271\310s\350\2725u\\;\004\2719<\257+H<\300\233\003\274\013\320\260<\2319\211\274\363P\242:\206P\326<\t\336\310\273\005v\253\274\206\375\275\272_BN;\327\006\274<l\306M<\026\306T<\251\365\242\274\200K\0378\206\025w;\243\342 :?&\031;5\361E\274.\027s\271\264\210\t;,y\225;\245g\224;\357X\272\271-\327 =\205\277\250;\204=\033>|+\201\274\255e\316<\203\264J\273\213Gp<\321\242\247\272\2308\340\273\001/_\274\027\344j>Y\327\225\274\355n\354\274h\242\325\276bn\306\272m\3637;S\021V\272\242\321\004;\001\264\220\272K\031\327\275\237\206z\274\234\370\013\273hK\206\273+5h\275C37>)\021\270\270\250 H\275\344\274c:[\227\327\271n>\327:\213t\016:\251.\210<\245\026\177\276\242;\212>\236\002=:<U\r>U\001{<\214\351\2049\031\270B\274\237\304\201\272`v\210;P\370\2408a\310E:\016\302g;\210\242\311\270D\2524=\372\363\202\273\356*\':\370\201\260\270\203\t5\273\223>O\273\336\324l;\232\030!:\037\346\301\272\255\346\211:\345Z\253\273\232\264f:\004m9;\246\250\t;\001\204J:\365\177\372\272\342\333\0149\223a\371\271\030\343\316:~&y\273\016\376\3719\014r\313<\036\211=<6\363\347\272\024\223\244\272\014\327\364:\256\356\224:\374v\2169\007x\363:\261\2509=\232{\007;\256)\340<\2568&=\322\035\032\273`}\034\273\230\t\235\273J\364\372:\353\314n:\360\0256\274a-\273:\001\223\340:2\277\257\270%\007\327:Tv\360<e\305\302\266\316[\354\275J~\361\271\232PY\272DO3\271\236\344\322\272\260\320\"\270\212\260s\274\331\211\242=v\346y\272%x8\275\367\324\236\2715\205\366;\305\267\371\274\306\241\317\275\371N\034=\240\257z;4g\323:s\276\264;\234$\255\267Z\030{<>,\264\274\265\313\355;~h\272\270\252\036\225\273/g\027\274Zh\256;\234\306\373\272\275Q\223;\207\313\337:\327\004\263\274\334\346\226\273o\2244=\261\340\311\273E\231l;\212%>\273\225\305(:\314x\376\273&\020\013\273B\376\251\273\352@{:cah<\314/\202=\262l\t\273R\322\357\271\341\257P\273\376\373O;\210\357J:1!\002\273\365)\343<\0327\325\273?I\302\273\242s*:\256\277\315\273\304\027\222\273\342\212\024\275\364uA=yb\242:.\0246;\242\242\022;\272\022\337\272\t\344\030\273A\253\022\274\274\3567\275u_\307\273P\211\214\275J#17\216\245\031\274\200p\020<\301\204\315\273:l\303;\340\253\331;\352\265\024=\234\202\336\272.7\323\274\365CY\272\324_a8\312\033I\272\364\214\006:\340;\r\271b\213\325\2722\374\276\272\021\204\226\2720\236#\273`\365\233=f\330\006:j/\020\271=\220M\273p.\262\270\244\234.\271Ak\271\272\027\330<\272\214\255\364\272=\312\r\272D\341\313\271Y\315,\273p\352V\271%f\210\272\300$\217\270S\376\n\273\356\264\342\272\017\353\2668KU\251\271\006\200R\272\006[\025\272!\343\326;M.\216\271\335C\035\273tne\273\224Q\210\272\231\373\243\270\254R\267\267\352\362l\272\241\304\351:%\365_\270h(\034<\360\016K<\226\370/\273\337rx\273\263o`;p\276H\271\345\324U\272\227v1\273$\317\234\2727\202Y\272\364s\322\270\207w\031;3n~=`m\005\270\315\006J\275U\305\2465\226gP\271\260\264\326\270\256\306\202\272\313g\250\272b64<\224:a;\026\307\2427\2774\332;\376h\377\271\373O\377\271\216\0163\273\2535\253;&\230\260\267\034\215r\2730\216\3069]\\m9\034\203\027\275\356\036\273\275\264\023\264:\333\246\214:\316\205\341;\325\rt\273U_\333\272_\017p\271\315E?9\304\"#:1t4;\265\327\253;\374\276\017;\257\024\271\271\247\351\230\271\330\254\2578\027T\213<2\304\353\273\320\031`<V\260\370:\322\2605\273p&\374\272\273\344\304<\233\270H=K\314w\273#>:<\244G\207\271\224\352)\273\205\331-\2739{G\272\213\213\003\273\3322\256\272Q\223\364\274\345\357\273\274?[>:>\343P\272\342|R\273H\001}\271\310\364\341\272\311\035\002\273\223\002\271;p\035\036;\315R\357:\373\337i<[\254\211\275\236\243\3447\360K\001\275\360\352\027\274\225\222\2309H\213[\271;\315\037\2737\376\263\272\006\336P\274!\372g<z\253\020\272\366\274 \2751\r\225\272\254bL9Tqc\272C\257\303:0\035-\267A>\223\272\347Y\222\272\212\354`\272\242q\006\273\303/\241<\325\0029\272_\014\301\270Fk\325\272\227\231\231\270\317F\242\267n\314\223\272KM\326\271O\205\335\272\214\374\317\271\252t\010\271\225\3761\272\323\300J\2717b\025\272\022\201\322\270l\230#\273\240\235\357\271\020\346\0018\320\224o\271\r\301\233\272\347\200\320\271\341\332\236\274[\032U9\244\264\363\272\257\336\213\273&\367W\2728\253\217\270\004\340%\272\244\203\036\272789\275\017\312*7\226\323.\274\265|\273=0Ep\271\360\315)\273\003\214C;]\n\367\270.W\"\272\333=k<KMO\272N\310\002\272o\024\354\271y[\246;_S$\274~|\250\266\326y\246=\265\343\037\272\212G`\271\256\037\363\270e\334\241\272zi\242\272L8c<\357\366\320\274/_\213\270\202\364\374:.\n\214\271\215\351*\274\'\332\252\272W,\352\274V\224F\274\254\004\260\272\377-\367\272Z\004\315\272\233A*\273L\3766<X\204\263\271\024\202[\274\307\"\017\273\305a\216\2731\314\316\270\243\200\242\272\033\212\035\273\026\030\350\272H\345\353\271g\250\301\272\321p.\273\212Tl\274>\334\234\272;??\274\327%\023\274h|g\272\345_ \273\\\2550\273_z)\272\312P\023\272@\362\016<\331t\010\273\276\276\214\273t\014\317\273q\003\351\272\220\307\222\267\265\345I\273.\254\223\272\002\004\233;o\007(\274b\336\227<\364\270c<t\206i\273Z@\231\272pj\363\272\204\022\204\274+P\016\272\016\342i<>\352O\27100x\272\351\345\025\274\\\273k\274 \3749<\310\2108\274 2\267<\301\206A\274\252\021S\272\315\177:\274\314\234 \273^$\234\272\342\235\340;k+\013\2733\216G76\233f<\311J\276\272\305\324\301:\230\021c\274\355\004\243;\224\020\265;\260\365\260\274\374\271\215\274\261=_\274\226qy\274\014\225\307\274\271&5\274S\270\331:n \272\274\254\310\243\274)\241\371\273\225*e\274T\234V\2748\023\233\274\005\014\237\2741\310\241\274\237\336\255\274\377U\210:\004(y\274\032/)9\'\'\220\273\305v\303\274~\000\245;\350\352\216\274\260=h\274\310o\374\273\356\260(=9\030\257<\277\340\002\275^\037\301\274\217\251$\274\222\315\325\274\256\264\002\274\004(L\274\027\020J=]K_;\204\201>=\036\001\225<\025\272\325\274f\232\314\274\261C\240;F0\366:*#\177\274Cd\260=SgE\274\311\261\251\274\266\225n\273\231J\346<g\205\241<I#\216;\305\325\223;k}\271\274\234\361=\274G\254\342:\032\005\341\273o\206N\274PH\331\275\345\'\024=\246T\215\274\262\242\r=X\030t\274I\365\355\273\333LD\274\330\375\\\274@\315K<\200u\210\274-\013\306:\030\013\203\273I3]\2753\252\352=\375~e<\314|A\272\356&\213<\327\325w\274\215\355\032\273\272\246\276;\271LT;\304`\224\273\007\037\300<f)\320<\350\027\272<\230W\026<\222)\245\272\017-\231\273\216IK<6%\214<\312\2470=\033\263$=s\272r\274Q\003\313:\366%j\275\027z\212\275q\323V\274!\221\370<\342\276\247:k\265\344\274\200\275\341<\377\254(\273O\341#\275\231~\177\274\363\250\317\275\317\254\201=\332\356\334<:)\212\274:U\005\275\277\373\351;}\3624\274\230\265\014\275 \177$<\344\335\261<\033?.<^F\236<I\333n\275\230n\207\274\332Z\326\274\354|%=\355\343\261<\240,\357;~\214\"\275[\355<;\203Zu=\364\302.\275N$\252\274~\364b\275\322\266B;?\t4;\314\205|\274\026\177C<q\366\377;\000#l\274\311\3379\274\025\353\037\274\0041j\274\013{\364=\333\300:\274\300\231\213;\216\362t\274\253\223\237\274\r\021\374\273\r\005\031\274U\\\r\274\340,;\274\267\200[\274c\342\201\274\323L\221\274\213\351\257;G*!\274\250\016\000;\342\3777\274\200\364\371\274\243\254m:^\265M\274H\360k\274\333UT\273\365\375\016\275\246T\215<\235\242\270\274X\236\264\274\037\245\003\274\311C\321\274\344\331\021\274L\311\002\274G\366\252\274\255\221\004<n\027-\275\023\354\245\274i\243\260\274-\201\275\274?\013\323;\311\300\247;\362\325\035\274\030\004\277\275\217Y\r\274.\257>\274\242\350c\273L\227\023=\340YV=+;\'<t\255n\274r\276\360\274n9 \274\340\225\230;d=)\274\314\374\305\273\270\333s=\274\323\234:z\006Q\274\332\r\323\274\203\2415\274=*\312\274\037\214\006\275\231EN\274\274N<\275\037\265\303\274\267\361\221\274\005\2757\274\337\335\206\274c\033\200=&\351\207\274\256\n\237\274&\217\310\274\356[\327\274\332\255L\2746\003\223\274+\217\222\274\275\305\242\274+\310\261\274c\274\260\274\307\210\314\274\224\337\313\2740\024\333\274.j_\275\227\0016\275\216\360\342\274[\233Q\275\000F\210\274\027\365\\\274\376\267&\274!\264\217=2\314\024=\335\327K\274\373\327\"\275\225\224\201\274\203\277\004\2750,\257\274(\300\234\274\364\236Y=\206\333\013\275\356S\220=\006\204\265=\037\377\017\275\344\013\007\275\251W\307\273\241=5\275F\334\215\274\352\247\212=\241\340\006\274H\207\310\274\354\277=\275\233\"\"\275\201\361`=(\224\001\2750\310\231<\271\013\020\275c2\210\274:\200+\275\024\336\301\274A+]\274a\270G==\271\033<\274\321\265\274\201\364T=\357w\211\274\205\\\271:\331]\327\274\247\352\372\272\341\314\315;\206H\036\274)n\316\273\3369\250\273\201}\001\274\232\350-\276\255w\034\275\237\260|:\251\313\036\274\\2$\274\215\'\314\274\333; \273^\334\262\273\244\240y\273\323\022\\\274FwA\275\"3\004\275\251\201\321:\220\020@\2744P\007:\352\371\357\2730\326\273\273\360\336i9-dG\274\371H\244\274by\244\273\276\207\273<}\313\260<\266YG\274\257\\t\274\271\370\301\273.\374\316\273p\342@\273\371\001\002\274\201\035@=\315\031\273;\355\036\200</}0\274\005\252.\274W\372Z\274\230\272\005\275ju/;\205E&\2742\036\033\275P\300\315\273 \306\205\2744\017,\273L\330w<\027\341\327=\267\030\0039\350\007\004\275\247\250\030\274\3069\021\275}\0021:\014\000\235\274\243\030\343\272\n4W\276\351IX=\3701\002\274\231\n\347:\236\240\310\273m\237\322\273\n\024y\274\375\234S\274\211\215\223<\034x9\274\242\'\024<\004O7\274~r\235\274N\203\034\275\034\036\205\273\234\377\270<\227\232\252\2742\206p\274\306K\n=\252j\364;\376\243#<\035v\005\274X,g<\265\030A<^\263\273\270\020#\376;S\263+\274\342\214\024\273\304\374\037\276\240\t?<\326\026)=\343\332\307<M\371_<\255@\274\273v8r<\215\235\227\274\t\333\005<\253FJ<\032\3269\273\313\347\240\274\314CK\274n`q\274K\306\037\276.+\214\274^\302\216=%w\035\276\236\271\242<\335\326\\\274q\317\010\274Qy\021<\235S\303\273n\355J>]r\201;pJ\n<fZ\206<\234\236\332\275\312\334\222=\250<x\273\327\037j>\177\t\271<\262\364\031:+\211C;;\355\256\274\026\302,<\017`A<\323\372\344=\227\351f\274k\241\207\274\2524\356:\252\340X;\353\314\333\274\267\275z<\250-$<\301\337\225\273\000\216\204\273>\375a\273p\230\307\273%\311\204=\320i\355\274\257\202C:\2710\243\273*]\323\273?\235\266\274\016;$\2724\033j\273\315#\315\271I\023\004\274\367\216\000\275\027Mu\274/\240P;Ia\000\274\260#?:x=\003\274\006\262\257\273Y\234#\271(S\005\274r\355\240\274\333b\204\272\232\263\n=s\235\346<~*G\274)\016~\274\323\010\242\273\3130\336\273\267\342s\273\313\201\266\273\021\345|=hd\027<\332\311\207=\345\233$\275\251\372\315\273\023k\"\274gK\025\275\311\027\264;\210,\344\273\255P1\275P\023\212\273\313\006\312\273a\352\217\273\372\010-=\241\266\220<\310B\244:\232\225\004=D\372q\274\316+\242\274\016f\274:x3X\274dy8\270\2632#=Pv\333=\366)\254\273\321\271w<\007\327\202\273Ao\017\275\357\262-\275A\035\t\272\354*G\273\347\251!\274\303\224\312\273\213\245\364\272\344Q\n\274\001\005\034=\\\tt\275M\2007\275\234@\033\274V\255D\274\264\310\003\275%U\215\273\027\306*\274H%\332\272\030Sx\274\255\016M\275\312;\031\275Y\315\323;\307?L\274u\212\312\274)\267\320\274\344\354\213\273\360\322R\2750\342Q\274BL\253\274_A\346\273A\332/=R~d=\315\032\245\274\365U\230\2742\231I\274AC-\274OB$\274P\211p\274]\227\032=\363\344\307\274X\335`=\322\002n=\340!T\274\006\035j\274\207V\361\275\242(\032=\217=0\274\350\006\027=\361K\357\272\177H\241\274\002e\307\274\360|\372\273\026\0164\273\307\247\332\273\333\000\224\275\240\002\010\275OB7\275\177a\230\274\031\335M\275\334\257[:}\355\000=\376\277p=>\3401\274\251\014\346<\301p3\274\252\363\\9\233V\007\272\342\230\0147\216\260\335\270pu\026\273\332\352y\272\317\'\222\272\201\231b\272\311\201\352=u\206\262;%?+9U\353\254\272\266\306Q:+\023x:\010\222\277\272n\010\367\271\210\215\357\272\233\2034\272\226\263\023:\025x\214:\255\235/\271\354\374&9ud\177\271OM\200\272\256\277;\272`\325\2718n\331\215\271\000pX\271\245\227\3737\036\224\265;R\364\3118x\203\272:\001\341\2039\020\\e\2718\3057\272t|H\270\246\254\247\271\263t}:33I\270\306\013:<\001U3<<\r$\273\0316\317\272\2063\022<Lx\241\271\233j.\272\033\227\300<9\325\274\271,\003\236:{\304\0019\031l\2428\027\213\352\275]=\r\267\032jB\275\346%\2467\\\276\016;6c\313\27026\333:X8\244\272\250\"\326=\352\001\304:\246\231\2629\033\226\347\271\006\234[\2710\345\306\271\004}\3038\323\277\007=\270\334\223\271\207\037@\273Jnc\273\r\373\200;\007\311\251<\001\036\267=L?\201;\\Z\2678A\266 \274J\007%;\271\032\330\273\256\\<\273\222\207\024\273\017hw;\304\370\0329\216\356\022;\027 [:\'\305F\271\266\307-;\000}\005:@\301\367<\3360\212\274\350N\022<\314DL\270\031\315\251;[\254\203:i9\215\275\373\300\326<\255\257\206\273\241\356\014<\220<\271\272\"\324\2358\375):\272\220\216=;G\006\013>\227\241%\271S\250&\276\275B0>\277\340\3448U&\277\271\207\300e\272\203\302\272\271n\321\3009\240 \004\276\373\314\331:\366$\2249\360\203\3459\030\036\232=\215KU\274\003\246N7\004\331\212\276\'R\000;\325od9`ba\271\363\207\241\270\017\245?\273#E\022\275\353Lq\274\301\372\322\270l \341<PRl\271\217!\2209\233\324\017\272\354(\0028B;\216\271\031]\245\272.\340\001\272\"\255.\272\367zQ\272\361\310\246\274W\025m;\0149\2339\270\213\205\272\205|\2049\351 \2448\250]Z\272\273Z\224\271\240\372\232\272\304%\333\271p\300\351\270\314J\240\270\244\002\207\271\242\343\0009\024\234\270\271W\024\227\272\273^\307\271\001\223>9\037\367,\271W\331t\271_\255(\270\334\222\271\274K>\367\272\256u\212:\024r\245\272\016\231\037\271\372\207n\271z\340)\271\310\262\243\271\376U+\275\211\222Q\270\030\231X\275\227\007$>\362\251|9mfH\2701\362\370;\364\276\250\271\250-\357\271Y\264\214\273![\240\2714H0:\233A\0269\243\030\225:QC\312<\374\034G\266\0010(\275\214#\035\266\002\204o:p\312\'\271\333\016\243:|\363T\272$\006\273\273L@\347\274\226\002\\9\000G\004\275!\370\345\270(t\373\272\3558Z\272\030)\347\275v\2077\274\214\037\013\273\023\311f\272\212\323|\272\275\212{\272\310\315i;\276\003\n<\nO\000\273hb\034\272\0059\243\273\354\266\3019\340\256\261\272m\035\t\273\266\217\366\272;\022@\272\276Q ;\251ps:U\373|\274p\'\3125I\241\031\274\037\003\211\273\276\251\017\272a\345+\273b\303\342\272\262\2027\271\025\270I8=\322\031;b|\035\273\301\307E;\246\n\017\2737)k\272\263\2550\272\305\305\245\272\350\226\275\270\252\236\363;\032:M\274\004[\010<*\332\006:%\225@\273i\355E:\030 \344<\035k\020\275\364\251.\272\203\260\252;V\32199aB\266:\300\255\346\273\365\225?\275\361\000\020<\253\035\244\274\003^\';\317\264e\273?\257\230;S>\010\274}\234J;\275Y\247\272N.\215;\244x\026<\002Q\3059\304\354\003;\202\256\221\272\243\266\344:q)\017\275\231\237\020\273\2254\210<m\361\244\273\013\"\036\274\035F8\2723\241\232\273\3461\024\276\252\3472\275\014r~\272\347\020\276\273\264k\271\274f\002\263\274m\337\210;\325Z\032\274\\\354\320;38\220\274!P \275\230,\310\274\305k\236;\317\032\312\274\245\234\303:+\211<\274\372\r\013\273^\300N\272\010\333\254\274\346\272\215\274\347\177\224\273\306^w<dt\000=\267\035\314\273\337\301`\274\373\033.\274U\360\3529O\313,:\331,|\274\235w\200=\315\277\241;\246\031\261\273\323\000T\275\346\261\230\274\347@\223\274\240\205\010\275/q\322;.\367.\274\262K\246\275cN\313\273\246t\310\274\221^\037\2735Jm<\021\266(>\346\321\3069\310\335\213\276h\205\007\274\213K\027\275\244\373\376:J)\361\274\270Sh<5\201\221\276\207}l=.\340B\274\342\222\317\2737<\032\274K\336\353\273v\014L\274j\210L\275\313k\n=\363m4\274@6\357<\357\022\326\274}.V;`\225X=x\261\340\273\267\213\271<\270\006\031\274\330\252\325\273\026\223\033={\340\252<j\236\355<\234\212\004\275\241\243\007<\24407<\206\377\365\271v\024%<j\016\350\274B1\271\273\201\027\223=vU\250</\031\013=\243\205Y<\2118-=\034\025\332;\037\016\237>\377n=\272$\023\357<\214\300\'<7\370.<JD\207\2743\0204\274\204i\025\275P\343\001>V\375\227\274\240\027\265=\021\317\231\276<\344X<\363\312\306\273\2323\236\273\007\241h<X\017\253\273\232\3057=-K\210\274#U\355\272\275J\336<\201u\023\276\210\250m=2e\'\273\266\316=\2755\377\251<(\356\035\2737\346\322;Yan\274s\376\025=\203~9>\324\3001>\342\350;\274\023\'\341=\233w\233<\014\320x;\324\373\003\275b\212*;\342=\272<\337\233R\272Q\251\356\273LH\2519\326\237f\273i\\\211=\344\342\004\275\013O\303\272\002!c\273\324\305@\274\300\346\253\274\265\313\214;\375\310\310\273\025v\360;\366S)\274\352Z\361\274\3179K\274\212\314\002<7\002\223\274\221+\021;\324\365g\274\373N \273>\241\310\272\242\325^\274Z\213\242\274\025o!\272\005\235\300\274}\255\036=\000\244\357\273\254\344a\274\357\032\020\274(\225\211\272\306}\2409.3-\274.\225\260=\034\273\347;\030[\312=\274\275Q=:AD\274\340\304F\274ZR\n\275pe=<\246\274\340\273t\202I\275\023\351m\273s]6\274\265\361\242\273L\024c=9\216\303;\307\336.:\025\216\311\275`:=\274\245\306\247\274{\306[;\252\323\243\274\355\201d<\250;G=\'g\367=^k\346\273m6 =+n\271\273\322\277\357\274\231\342v\275\235\335*\275\004\222\352<\001\035\234\2735\246 \274\345\316\204;\035\347\251\273\373Y2=\365\005\223\275\233\247(\274o8\263\273^\007u\274\327\031\345\274\372\300\257:\232\366A\274\007\365,<b7\240\274U\2051\275*Y\354\274\243l\022=\343\223\252\274Y\266\204\274\033\255\271\274\330d}\272!\252\231\275*){\274Fj\262\274\304\344\317\273\"\252\024=\333l\263=\211\315n\274<bx\274V7j\274\341\002\032\273tj`\273\243\335\242\274\\9b=\221f\205\274\025Jh=\310\006J=\216\002\254\274\034\377\272\274)H\335\275\231Es=\312l:\274\325\241*=\366\016o\272\"\316\347\274\'\256\213\274\306FD\274\007\366\007\275\241g2\274\360\234\231\275\004\361\373\274!\037J\2757\2513\273\325\371\210\275\273\351\222<\2648\365<\201\342\226=\245\033Y\274\347\001;=\232+U\274g\231\276:-\271y\274t\233O;\216B7<\345\363\314\273\237U3\274\204`(\273\322\254\364\273\026\366\232\274\017,7\274\021A\030\271\312\306/\274\004\025q\274\037z2\2738\216\373\270\234\306\007\274\022\336<\273\033?I\274Nl\313\273\252\200\264\273\000\274\016;\343\272\213\274\371\201\017:{i\013\274\323Y\034\274\335\324\332:\200\353U\274L\222\354\273JN8\272`\225\217<T\254\367<8JT\274\037_a\274y\222\025\274\037\343\315\273\233\024\242:\211\3352\274\213s\026=\340bz:4\262 <\013\200\222\275\333\315\210\274\352}\202\274\235\345];\032\310\377:#\332\363\273\356\226\020\274\225\327\333\273\215\257v\274\223\325\376\272Gi\206<\250\3056>\033\337\2419=}=\276\361\034\032\274\332\355\205\273s\266\225:\225qO\274\216=\253;f\202\004\276\354\261\253<\366\346 \274\2159\037<\256\242\372\273\205\373\257\273\262}\213\273}\206\367=\026\204\274<\014xY\274\374W\204<X\347\247\274D\253M=\363\267\035>r\346.;\365\342\216<!\213J\274N\226\r\274\220^\032<\351\322`<\246\213\247<\243\374\256\274\240\242P<\022\013P<\020\036\013<\200\223\342;\370\000\244\274+\273D\273\266-;>\004\305\345;!0\t=\026\236\271<.\267\002=\203\307\027<\303G\361<\202\352\221\275\205F+<1\3658<^\216\016<\341c\252\2745d\367\273uM\301\274\027n6>(\360K\274\247-\004\2764`\277:\377C\205<\236\200\'\274\031\224\207\274\022\322\352;\322\262\007\274\002b\323\274%\212o;\271S\346;\252V\222<\3607\314\274\013\371\322\275\253\245\261\273\342Ze\276{6\325<\256\214\007<H\337y;D\027\245\274!\003\260<\364\300\'=\266\305T>\305\016T\274\343\220\037>\375W\224<zf\r;\326Fd\274\305\267\003<\230\363\202<\356s;\273\200k\375\273\022\267I\272\366\177\n\2747/\025=\207\302#\274u\202N:\215\334\336\273\370\025\022\274Jwa\273\206\350`:\261\213\273\273zK\024:\350q\367\273\341\367\333\273_\262\304\273\254\010\234;Q\236C\274\004\264\231:\207iC\274\000$-\274\000\345\241\271l\323\010\274\342\340\367\273#Uh\271\341#\031\275\023\214\224:P\243\275:\232\370\\\274-e\374\273\r\026\336\273\346S\253\272(v\005\274ax\203\275\027\rt;-\213:\274x\023>>KR5\274\357\033P\274\347\235\276;\266\300\302;On\232\273\302q\002\275\335\021X\273\366\032\370\273G\270f\273\267\'3=\237-\256\275A\364\013;\304Yy<\372ou\274\340\232C\273O\320\037;3\343-\274(h\366;$\246\377<\333T\333;\253$\316\273\r\246\213\273\034N\273\273I\002\301\274t\210\240\274\216\333\240\275*\235\026<~\200\360\273yH5\274\3766\233:H\367\010\274\312\3676=\203\373\255\274JF\211<\331\3730\274i\342}\274\215t\250\273#\354\037\273,\344\033\274\201n,\273\332\253g\274\352\341\036\274~O\373\273\201)J<\215s\216\274z\347\343\274\230\372\271\274c\330\035\274\r\200c\275}\335-\274\356\270\002\274\3460\r\2732=E=\342\'I=\314\315\000\274\321\264a\274<^+\274\373\3040\274\312\366\334\273=\035f\274\336*>=\310S\301\273\t=n=\274\026O=r\354\262\274\007\331\262\274(\331\244\273\355\303\206;\0356\027\274x\036L=\260v\021\273\230\241\217\274Y\033\206\274! \035\275t:\373;\351\013\020\275\376_\222\274\212\006\332\274\004\256\365\273\352\264]\274J/\000\275S\232\237;\242\245\013=$u\374<\243\016^\274A:N=\222>1\274\361\201\215:m\274\035\275\237\247\333\273\326d\220<\263\250\225;\245\253\212\273W%W;\247\203a:s\004\317\273,\213\200\275\236\227\022\273\251\351\020:\322t\321\274\337\307\352\274\024\313$<\317\210\016\274d\'\223<|\231o\274s\346P\275K\232\367\274\351\013\316;\024\330\322\274b\203\003;\035\340\201\274\3522s;\236^\364\272\372\346\257\274\341\340\264\274\353P\254\273\275\010\354\273v\335\375<\216#\001\274\023\"\022\274%\332\022\274\341k\332;\370\317@\271\031\220r\274\205\371y={w\205;t\352\"\274\321\007\372\274\252\205\234\274\021\255\212\274n\311_\275B\003\010<\365^\013\274]\0310\275\345\361\002\273\250+\322\274\313\302\007\273\357/G<\272\277\271=\376\363\2339\250\215\014\276\020_9\273\210\363G\275\020\235\353:*\304\006\275uB\237<\337\223q\275Z\307\246=C\033O\274\232q\205\274\203\302\033\274\235\333\261\273\271\305G\274\373m\370\273\026\303\013=\177Y\347\273*\202\026=\352_\267\274\271 \245:\033\347\206=\222;\'\274w\203 \275|S\001\273(\365\352;\317KZ=\242\201\333<\373\242\345<o\2740\275\201\005\202:\323E\001<\2420\231;\221w\016<@\035\010\275\nA\336\273\371\253\032=\211\270\027<\312\343\255;\342\023.\273\024\tU=\025\3151<\027\203!>\351\206\005\276X$d=\234\237t\274\357\273^<\010\\,\273\261\204v\274<-/\275\323)\031>\246;\352\273f\220K>\335\017Q\277e\306`\273\014\213)<\022>%:\352\201b<,\036>;\336\253:>p\'+\275\320\324/\274\301\303\254<\205\271+\276\301.*>\350\273\033\272 e\242>)\346\245<X*\366\273\332\242\001<\246\033\031\273\366&/=C\000\335:*\022\000>\276\253U9\343\326n;\347\013A<\223jV;\234\264\030\275\361\310\272;A\324\275<\337s\272;Gv}\273\243oc;\t;~:\314Q\341<Z\037,\275\203)`\273c\267\3059\341P7\274}\234\332\274\353\023\017<Ak\246\273\277A\202<\202\376\013\274)o\025\275\354\\\201\274\260\372\031<~[\231\2742\3717;\263\207\227\274\361:\305:\307\013\013\273\300Zg\274\250\000\254\274\204|^\271\206\310B\275\027\0245=;\016\364\273\206\027\360\273\205x\344\273Du\205;t\221\2719x\000\031\274I\217\n>\232\232\227;\347b)>\337$\347\274\367\315I\274\261\242/\274G;_\275\234F\\<\336\240\247\273?b\234\275\003\351>9\206H1\274\034\350j\273\365\213%=\214\226\013<\246\241\3739m\223\243\275^\243\013\273\n\276\353\274\246W\213;\220\353\241\274wm\232<\326\256\303<\3620<>w\004\307\273\2746\372<\267\335\251\273\367\004v\274K\t\214\275\317I\t\275\207\331\t=\231P\177;\003\007\205\273E\367\372;g\016\214:\201\315=<\377\324\322\275|\313\013\275H\363\r:\256\n:\274\327;\010\275\305\r\r<\232z)\274b\302\306<\207T\207\274}\323Z\275\254w\025\275\264,&=\352Z\215\274K\273\027;\'!\325\274\243k{;\357&o\275\376\2732\274\206\233\267\274\342\037\336\2733\241E<\n\322\253=\"\231`\274\341b\010\274E\203N\274==\362;o\370\3247\236\003\234\274\375\324==J\037\005\275\366#\r=,7\347<e:\255\2742\226\272\274\014\301 \276kYw=\374h\017\274\224\213d<\247hj:\202\262\357\274\001\224\236\2740c\022<\265\224\203\275\"f\331\273\014\205\201\275B\376\375\2735\367\202\275\304\317*<h\217\214\275N\371\303<\234\375\202<n\263\332=O\366\017\274j6G<\037\2552\274\377M\227:\t\317\306\274\220\030\210\271\262\024%<\261\355\301\273\014\025\004\274\341\331F\272\3101\255\273SZY\274\305\316\373\274\355\224\251\271\024\336\271\273]\273\201\274\016w;\274x\310\337:\002\220\331\273\265F\305:\030uS\274|\302\330\274\t\n\203\274\345\374\032;\3210\213\2749\274 :\236\200\004\274\301a2\273\243\324\021\272\024\301o\274+DV\274\275\347a\272\031\317\005;0\211\357<9;\001\274\207T@\274\024$\361\273v\243\r\271g}\006:\370\017$\274\307\320/=\274X,;\354\311\\8\030\327\202\275\265|c\274\261\013b\274\242C\220\274J\256Q;\263\241\n\274\023\3672\275\374\032\260\273\227,v\274M\027\243\2720\334E<x\266\267>\367\350>9\030\001k\276\206\t\271\273\374@\272\274(\244\204:\010.\242\274b;\n<\255\367;\276\026\3249=i\"\024\274\211\270\322;7\367\240\273\033\037\241\273\243|\003\274\201\032\001>Y\'\304<\n \017\274\206\223\260<\016\027\255\274\260\317\266\274\036cm>W\341\324\273\367 \312\274\314Ik\274o\315\360\273IM\315<\251.w<\204\304\305<\230\n\267\274?$\002<b\270\032<Nh\202:\237\277\337;\257W\307\274,\254H\273Yc\371<\374\036\221<\230)\003=Z\026Q<c\322\243<\034\036\240;oR\003>\347u\271\275j\245\231<\r\rg<\002\253\332;\377Nj\274\025\r\017\274\254\251\361\274xB\235=\374N\214\274\224-{<\202\025W\276D\216\'<X\214\247\273\205\317\255\273\244,\026<\360p\222\273\331Z\002>\257\237A\274A`\2549\204\231\251<+m\272\275\022\035\216\275|G\311\272\365<\316\275w\245\237<\341_\201\272\"\016q;X\322@\274\020\"\326<$e\203=\340\202\350=\214\216\005\274i;\276=v\310\212<\327\267#;\013\322\273\274!\347\306;\001?~<q\324\027\273\361\252\310\273\270\352\3668e/\200\273u\354Q=\235\024\234\274\007\231%\272\014\031?\273\301\032\t\274\351\242/\2741\017\037;\211\250\231\273#%\034; \221\367\273\366\246\212\274\324&\332\273\315H\242;4\3218\274\320\344\226:\307M\025\274\242r\026\273\3711\245\272\274\253\025\274\374\234]\274\354>=\270\370\354\330\274&\027\330<t\202\370\273\341\256B\274\225(\306\273A\212T\272\006\354s\267q\217\323\273B\223;\273Z/\245;|\023&=t\221\305=\323\033\014\274\315G\032\274sC\225\274\334\247\346;r\371\264\273\367\002\207\275,6?\273c3\355\273I[[\273\225b@=\212\212\251\275\327T\2609\365\017\232\274\305\005\022\274\210\313D\274\356(\373:\346\245b\274A\301\370;\250lK=\353\261\242=R^\265\2735q\001=\362Ob\273\227D\251\274\373\326+\275\no\204\275e\256\203<\020f\301\273d\200\013\274oF:;\020~\253\273\036\340\032=\367BR\275[YO\273K\374\253\273)\274U\274\022\014\216\274\344b\214:8\320\r\274Z\034};\372\\l\274Ka\002\275i\212\237\274N\313\225<\327\006\202\2746,\215\274\371x\252\274\357k\367\272\232\212d\275o0J\274x`r\274\034\021\021\273\303\226\343<\250\003\213=\0173B\2746\243U\274\336\2578\274\203\203$\273r\331c\273~ye\274E>+=$\262Y\274cR]=\273\2603=\245\311\210\274y\364\210\274\244h\233\275\267\020\021=\007\251\023\274\221\256\027=\344\317;\271n\327\220\274L\372{\274\244\370\247\274<D\235\274\272\316^\274\341\313+\275Gr\331\274\250\231\377\274\\\211\356\273P\022A\275\243\3012<A\021\362<\365\020c=Dx9\274*r)=3\020\032\274\325\220\037;\036#\275\274\224t\334;\233}\377;\261\276\317\274H)\254\274~\341\215\274d[\253\274]\255\211\276\310%\232\274\370\365G;\347\254\360\274\022y\333\274\001{\213\274\311\325\236\274\322\026\243\274\305\350\265\274 \333\322\2745\244\007\275>\016\360\274\317\265\200;\313\224\262\274p\216\263:\236\367T\273\204\\\314\274\217\354\270;]\344\307\274\274\373\213\274\013\337\201\274%hj=!F\307<\246\366Y\275\231\244\320\274\005\021d\274\370\363\006\275&+A\274:\214\247\274p\226\205=\023,\370;\0132,=\204\0139=\256\252\322\274\357\030\344\274\353\262\005\274eH\243;|\263\253\274+6==\376\360;\274r\226\367\274\372`\204\2736\251\372<E<\270\275>b\003<\262:\"\275`\364\334\274JQ\315\274\250\003\214;L\235y\274\214\206\207\274\265\332\013\276DCV=\025\334\264\274.\212\362<\323\340\257\274\215;@\274_\235K\274\325[\"<R\316\231<\310}&\274\237\347\214;\023,\233\273\0077\247\275\007Z\242=\312\235Q<.c\335\274\214\247c\275W\255r\27407l\274\032F\370;\304\351\017;\333\002\313\273\3161\310<\201\270\270<\244\350\231<\230 \204<8\231\261:\364\353\037\274\036$\010> \r4\275\313\301,=Z@/=X\355r=\240W\2749\224c\021>\202a\006>\020\033\267;\316\022\242<\276\231\357:!|\375\274i\304\003\275nE\016\273c\300\274\275q\213\211\274C\017\357=5\342\253;\375\023\003=Z\375\250\274\252 \371\274\332\327~<+[B\274\177z\273\2744\220\271<\362\224\271<\360f\n<\320\017y\274\211a/\275\370\024\270\274\\\010\231=r\233\026=\002\277\250<\251\014P<P\2142\275\337\212\225;\374WO\275\311n\225=\353\312\307\274_\352\"\275}\031\210\272@\241\233;-\315\310\274\304nO=]\3325<\244\334\226\274:\271\201\274\226\033f\274\352G\n\274d\312*>_\366\227\274Z\231\251;W\375\225\274\334\236\314\274=G\223\274\311\237l\274(\264U\274%\243Y\274k?\231\274\330\301\341\274\356\"\314\274\315\345%<\022Zo\274\001\336\257;\346\035\336<h|\003\275\276\360j:\224i\226\274\366U\244\274\356\263\373\273\345`k\275\252q\355<M\261\332<\177\261\340\274M\2318\274\311U\004\275\306\2761\274F8S\274\330\237\037=\323\3405<\375}\'<\242\037\301\275:2\314\274\027\224\267\274\231j\361\273@J\"<\266-g\274\336\351\240\272\277(f\274\274\362\235\274r5\025\273\010Q\373<\261\215\253=\324\310j<\250\267\270\273\246\350\003\275\212\300\242\274\306\r\007<\322\375\213\2744\233\016\2746\005\316=i\306t=\361\352\213\274\235\016$=\216\007v\274xW\273\275\027qV\275\276\023z9\026u-\275EE\335\274\016r\265\274\223L\202\274\266\037R\274\346\345\223=\255\036\351\274\322Y\333\274\007\260\351\274\340\034\270\274\202\276\332\274\022\240\276\274\256\360\270\274\202\356\265\274\337\207\350\274=*\013\275\325\201\010\275\241\263\207\275\026\232\372\274S7\242\275F\246 \275\"9\354\274\224\273z\275\362;\\\275\355k\242\274H\361\225\274\261\357\240=\031\021#=`\204R\274S:\036\275\037\337\224\274\272\321!\275\266\300\300\274\220\366\312\274<\001\206=\022\300Z\275\302g\211=< \333=Rc\017\275X\373\016\275\273\007\020\275?\366\370\274\351L\266\274}\261\255=\370OQ\274\213\374\r\275\263\262,