node {
  name: "input"
  op: "Placeholder"
  attr {
    key: "dtype"
    value {
      type: DT_FLOAT
    }
  }
}
node {
  name: "transpose/perm"
  op: "Const"
  attr {
    key: "dtype"
    value {
      type: DT_INT32
    }
  }
  attr {
    key: "value"
    value {
      tensor {
        dtype: DT_INT32
        tensor_shape {
          dim {
            size: 3
          }
        }
        tensor_content: "\001\000\000\000\000\000\000\000\002\000\000\000"
      }
    }
  }
}
node {
  name: "transpose"
  op: "Transpose"
  input: "input"
  input: "transpose/perm"
  attr {
    key: "T"
    value {
      type: DT_FLOAT
    }
  }
  attr {
    key: "Tperm"
    value {
      type: DT_INT32
    }
  }
}
node {
  name: "reshape/shape"
  op: "Const"
  attr {
    key: "dtype"
    value {
      type: DT_INT32
    }
  }
  attr {
    key: "value"
    value {
      tensor {
        dtype: DT_INT32
        tensor_shape {
          dim {
            size: 2
          }
        }
        tensor_content: "\377\377\377\377\t\000\000\000"
      }
    }
  }
}
node {
  name: "reshape"
  op: "Reshape"
  input: "transpose"
  input: "reshape/shape"
  attr {
    key: "T"
    value {
      type: DT_FLOAT
    }
  }
  attr {
    key: "Tshape"
    value {
      type: DT_INT32
    }
  }
}
node {
  name: "w_in"
  op: "Const"
  attr {
    key: "dtype"
    value {
      type: DT_FLOAT
    }
  }
  attr {
    key: "value"
    value {
      tensor {
        dtype: DT_FLOAT
        tensor_shape {
          dim {
            size: 9
          }
          dim {
            size: 64
          }
        }
        tensor_content: "\354\337\210\275\3166q\276Y\340\\=\207\340\330\275\370\346\017\2763<O\276\026b\251=\206W\371\276\261\025\"\276;\340\214\276d#\222\275\351\017>>\250\034\'\276o\r\235<\330n\216\276\351\336\275>b\270r=K\246\236>\244\213h\275\356\206\270\276\020\271{=m\352\205\276AP\240\276!\217[?)\355\264\276\217\311\301\274\370\266\20345\311\362\274mW\252\276\331Ul\275\324ds\276\374I\002=\210\307\036=\362\244\234=\212\206\001?\200U\373\016\325\236->\364`R>\363}v\275\234\304\337\r\243~!<?h\035\276v*==\262\206u=)]\000\276\025\032\322\275\376\205%\276B\373\240=\3035\274\275\0310\023\275\354\217\t>\317l\241=\352]\221\276v~:>\207\r\037>0\253\000>\373W[>@R\325\2759\202\360\275\232wK\276[\332W>\225\337\352=\'\254\263>\302_\236=\305l?\275\2351\214\274\243J\235=|\305\342\274h\220\202\272B\330\243\275w\371@\275\005\310$=\302\270\027=y\032\000=\301&\237=\"_\016\272\236\233\026=\302\225%\275\374m\374\272\323\037\301\275\330\006\352<5no\275\027\323_\274j\240\026=\336\231A;\022\204\332<N\240\\=\246_3\276\360\220F>\347I\231\272\224\264\032\263\017\301\306\274\355\277!>W\033\210\273\rS\354\272\266i\306<\262\274F<;`\234\275\373\332r\276\260,.\211\353>\223=\356\003\250\275\210\270\302<\210\255\367\215r\221T=\347\255Z=\035U\307\273\352f\262<\266\223;<\341\373<<\214\304\320\271\265N\330\275\006\002f<\270\211B==\233\352<\277\276P\275\266l.\275\3247\006\275\361wr<\346\225\257\273\367M\307\275\022P\302\275\373\263\005<}r\342;\256\301\204\2752\373!\276\2150j\275\220\204\355=\246\354\004\275\256\257\014=\232\357\264=\254\241\033\275$\005}\274\237(T\275\355\022m\276\316\005\010=S\254\217=N6\022=m\035\213<,\201\261<\372\263\315<H\213\'<7\264\324=\021\225\276\275\354\021\334\273\272\310x\275I\033\004<C\366\250<\317\320F\275-gN=\267TU=\026\177\037\275\251\373\231=\376\233\235<*\330\237\264\221\021\262\274/\340A=\245\205H=\033\021:=?\271r<\336\316<<\2633\251\274\035\366\260\274\234u\214\010\277\320$:\030\221\"\275\320(\r9e\317l\016\253\0179\275v8\002=X+b\275R\002\272<\245)Q\275\311\311E\275\1771\223\275R\206\324\275\250\257\263<:\270\000=\016\241\240<[\274\030<T\274/\275\211\206H>K\206\255\274/p\206=\267Q\250\275<\2534\275h)K\275Z\247\245\274\242\2303\275\307\253\020\275\022{\263<0\021\337=\253Yi=f\351\010>\\\265\264\276,\n\262\276\303\241W\275\215\263O\276n\177\037>\256`\200<\337\342\037\276\365\242\277\276\2246[\275~]5\276\301\204\270\275\266t\332\274\177K,?d`\356<yd\257\275\334e\031\274j\332 >\003aX=\303\017\321<_y\212>\257qy\274\341G\253>#\022\352\275\240\323M<\370\361\206\264^\305\235=KVR\276\305\350\271\276V-\016\276\304\266\302\275\254\245|\273t\254\275\275\221T1\275\201\030!\010\207y\014\275\314\030\266<\366\370\353\273\324\217,#7 \372>\316e\013\274\336\226\214=X\036\376=\023\304\357\275\272\227\235\275\203\\\201\274f\232\360=\250\332\031=\345\312\367\275-I\'<\037\251\255\275\235\212\004\276\374\253\032\276\366\014\"\276o\236\374;,\3178\277\214\260\033<Y\3631<\000*+\276 u\324\274*\264\024\276B\237k=\363E\264\275\323q\037>D\362\033\276+\221\236\276\322\321\305\273e(\327\274\031\034\301\274!k\346=\344\236\220>\335\265\343=\226m\265=\376\245\214\275wm\204\275\267w\314\275<f\243\276\353\035\177>\360y\247\275\206\332\311\276l{\364\274*,t>\234*\363=\n\262\236=Bp\"\275\233\211{\276\243)T?\"\024\024=j*\037;rA\317\265\214\211\340=Wx2<Av\260\276f\0372<1\333\347\276\245B\000<\314\347F\276\200\374\303>0\254\037\210\365\016w\275\340\0017<\266U\025>u\246O\027U\272(\277Y\347\036=\001\032\000>\225\276)<q\'d\276\342<\027\276<\0222\2761fJ=\367\224-\277\234p^\276\332\354\246\275\313\203\275\274\371\303\376\275\022\025\246\275\310\327\245\272\017+a\276\023\257 ?I\007`>\rG8=\352\331\271\276\216q\373\276\367\325\354=\306\314z>\\0\376\275\375\350\203\275\"W\206\276\177\300\013\277|\366\010>|J\363=\232\207\"=\250I\032\276\276\325\003>z^v>.\266K>E\357\333<u:\264\275fa\002>\362\205B\276\0134\245\275\356\010\237<\000O\246=\304E\030\275!\371(\276O\244\234<\205 \235\276\025\245\t?\033\304,=AS\027\276\n\251\265> \027\227\275\034\034\3723\304@h=\204(\227=\r\301\273>\037\017\024=\240\320t\275\272\251M=CL^\276\264\\\325\275Hf\316\035\244|\366<s\212\250\273\024\226\356=\261\030\021\261U7\240=N\212\237>\333\275\343\275\277{.>\356\262\346=\373*D=L\324\205\276\367|%\276\314\206\353\274\',z>\341\361\013>L\037D\276yi\344\273\206\305\224\276*Zw\275\214Oa=\267ly\275\245\'\350\274<\367\213=\002+X>\205:\343\275\341\246\342\275\004\016R\276WQ[>\246*\251=\330~-\277\331;\302=\334\304a=C\005\n\277\2733\325\276\003L\272>\333\366\355=\017\373/\277\\\372\253\276\331\322/\276\375g\r=\032\221\201?\304)\r?\305\375\353\276\344\357\224?\306\355\335>Y\211\375;\257zm\275;u2\276\326o[\276\321\215k\276s\265L>\256[:?\277\262\317\277E\323*\277\016\234\004\2720\327\316\276$\236\022\277\"\256\334>\227\323\001=k\277A?<\206\253\275j\0267>\235\326\344=\010\336\262\010|\232v>\0251\206?QO\002\276\260\304\232\264\230_?\276l\371\316\276R\021\235>\242I\366=\000\373\026\277\2434I\276%aA\277\310\332\177>\261\304F\276\371\022\264=vS\230\276\205\305\206>\201\301\346\276>\006S?\005\206|>\nZ\202?\312Q\020>\311S\206\275H\367D\277i\234\214=O\342,?7>\022>\356\257\304\273\000j\013?^\231O=\255\300F>\352\374\214=q~\317\276\341\005\226\275\035\244c\275\254\020z\277\264k\307>\321\330k?\341\232\014=\013N\232>W\305\217=\235\334\353=\201\266M\273\215]m=\252\371\016\277q\345%\275\377G2\276\025\033*\276\337\035\205<-\307\027\2766\242%>D\005\215>m\374z\2763b\202>!\300}>+|\341\264\253\001\027\276=\310\365>\313\024:\277B\307\305>\363\205\215>~V6>\207uV>\013\311z\276\240\3150\207\2369\034\276\344\214\320<)8\367=\253|R6\336\272\313\273\037\214^\275\366Z\301=\030|\352=;\021\346\274\236\245\215\276\2718\323\275\377\324\023\276\211\022R\276\260\214\205\275\002<\001\275\202w+>\266\265\344\275X\002|?7\"d>\360s\\?\037\2530\276U\336\263;\033\250\207\276\365\301\013\276\354M\324\275\261`\206>9/\254>l\005k>\035vz\276\322/\t\276\'\250\246\275\313\317\302\275l|\210>\267\353\037\2768\245\204>f\307\003\275\224n\001?\006R\366\275\nZ\276=0\260\301=N\341\245>\230\330\030\276\343\320t\275\036\251v\2761\n\335=\256d\213\275\021M\'>VU\003=\275\316\254\276\315Z\336\276<*\004\275\255zM\2763\001J>L\\#\276\353nt4\235\3761\276xX\270>d\345\312>]C\004>\273)\013=*}P\273\222\343\274\275\013\021o<\210\236v\tD\203\300>\330\244\240=\357=\'>g\337\2679e\372U\276:\236\017\2769\350\377\275l\277D>q<3>\361\314\335=\352$\017\277\313=\330\276Cy\324=8\230\235>\216a\306>C-(>\033\n7\276\236\253\005\276\271\301B?#\251\022=\3037\252\2761w\334\276\005\247T\276\356\003\240\276o\303\246=*\305!\277\272B\016\276\350\2140?"
      }
    }
  }
}
node {
  name: "b_in"
  op: "Const"
  attr {
    key: "dtype"
    value {
      type: DT_FLOAT
    }
  }
  attr {
    key: "value"
    value {
      tensor {
        dtype: DT_FLOAT
        tensor_shape {
          dim {
            size: 64
          }
        }
        tensor_content: "G~^?\364\t>?\325\344\207\275\362\242g\274\360D\201?)\016??H\3757\276\266k\225?\t\346\213?^\245\371>\226\326\225?\233\325\260?A\001\244?d\026\250=\314W\337>z\356\304<Kk\027?)\017M?\366\320\366<\037\242\217?\355\223\220?P\207\032>\312\005\002@\373\370f\277\365\226\336?@yc?\370^\207\266\227\262\014?h\266\250?v6\223\276\013\262\357=\374\337\261?\032Q\327?\304\024\327>\307\0221\276\212\276\003\261\326&\221?\312\254_?p\331\024?\325\264\201\272\010\351[>Q\203\276>_[\370>\364\037\002@\363$\263?\332\325\003?\371L\205?0:\212?\277\022G>\232\030\321=!\310.?p\271Z\276\375J\323?c\023#\277F\n|\275\232\357,?\273\241k\275\215-\235?AL\244?-\013\337;\275\221\214>\332\332\n<\200R\t?\223\326\216>"
      }
    }
  }
}
node {
  name: "MatMul"
  op: "MatMul"
  input: "reshape"
  input: "w_in"
  attr {
    key: "T"
    value {
      type: DT_FLOAT
    }
  }
  attr {
    key: "transpose_a"
    value {
      b: false
    }
  }
  attr {
    key: "transpose_b"
    value {
      b: false
    }
  }
}
node {
  name: "add"
  op: "Add"
  input: "MatMul"
  input: "b_in"
  attr {
    key: "T"
    value {
      type: DT_FLOAT
    }
  }
}
node {
  name: "relu"
  op: "Relu"
  input: "add"
  attr {
    key: "T"
    value {
      type: DT_FLOAT
    }
  }
}
node {
  name: "split/split_dim"
  op: "Const"
  attr {
    key: "dtype"
    value {
      type: DT_INT32
    }
  }
  attr {
    key: "value"
    value {
      tensor {
        dtype: DT_INT32
        tensor_shape {
        }
        int_val: 0
      }
    }
  }
}
node {
  name: "split"
  op: "Split"
  input: "split/split_dim"
  input: "relu"
  attr {
    key: "T"
    value {
      type: DT_FLOAT
    }
  }
  attr {
    key: "num_split"
    value {
      i: 128
    }
  }
}
node {
  name: "rnn/Shape"
  op: "Shape"
  input: "split"
  attr {
    key: "T"
    value {
      type: DT_FLOAT
    }
  }
  attr {
    key: "out_type"
    value {
      type: DT_INT32
    }
  }
}
node {
  name: "rnn/strided_slice/stack"
  op: "Const"
  attr {
    key: "dtype"
    value {
      type: DT_INT32
    }
  }
  attr {
    key: "value"
    value {
      tensor {
        dtype: DT_INT32
        tensor_shape {
          dim {
            size: 1
          }
        }
        int_val: 0
      }
    }
  }
}
node {
  name: "rnn/strided_slice/stack_1"
  op: "Const"
  attr {
    key: "dtype"
    value {
      type: DT_INT32
    }
  }
  attr {
    key: "value"
    value {
      tensor {
        dtype: DT_INT32
        tensor_shape {
          dim {
            size: 1
          }
        }
        int_val: 1
      }
    }
  }
}
node {
  name: "rnn/strided_slice/stack_2"
  op: "Const"
  attr {
    key: "dtype"
    value {
      type: DT_INT32
    }
  }
  attr {
    key: "value"
    value {
      tensor {
        dtype: DT_INT32
        tensor_shape {
          dim {
            size: 1
          }
        }
        int_val: 1
      }
    }
  }
}
node {
  name: "rnn/strided_slice"
  op: "StridedSlice"
  input: "rnn/Shape"
  input: "rnn/strided_slice/stack"
  input: "rnn/strided_slice/stack_1"
  input: "rnn/strided_slice/stack_2"
  attr {
    key: "Index"
    value {
      type: DT_INT32
    }
  }
  attr {
    key: "T"
    value {
      type: DT_INT32
    }
  }
  attr {
    key: "begin_mask"
    value {
      i: 0
    }
  }
  attr {
    key: "ellipsis_mask"
    value {
      i: 0
    }
  }
  attr {
    key: "end_mask"
    value {
      i: 0
    }
  }
  attr {
    key: "new_axis_mask"
    value {
      i: 0
    }
  }
  attr {
    key: "shrink_axis_mask"
    value {
      i: 1
    }
  }
}
node {
  name: "rnn/MultiRNNCellZeroState/BasicLSTMCellZeroState/stack/1"
  op: "Const"
  attr {
    key: "dtype"
    value {
      type: DT_INT32
    }
  }
  attr {
    key: "value"
    value {
      tensor {
        dtype: DT_INT32
        tensor_shape {
        }
        int_val: 64
      }
    }
  }
}
node {
  name: "rnn/MultiRNNCellZeroState/BasicLSTMCellZeroState/stack"
  op: "Pack"
  input: "rnn/strided_slice"
  input: "rnn/MultiRNNCellZeroState/BasicLSTMCellZeroState/stack/1"
  attr {
    key: "N"
    value {
      i: 2
    }
  }
  attr {
    key: "T"
    value {
      type: DT_INT32
    }
  }
  attr {
    key: "axis"
    value {
      i: 0
    }
  }
}
node {
  name: "rnn/MultiRNNCellZeroState/BasicLSTMCellZeroState/zeros/Const"
  op: "Const"
  attr {
    key: "dtype"
    value {
      type: DT_FLOAT
    }
  }
  attr {
    key: "value"
    value {
      tensor {
        dtype: DT_FLOAT
        tensor_shape {
        }
        float_val: 0.0
      }
    }
  }
}
node {
  name: "rnn/MultiRNNCellZeroState/BasicLSTMCellZeroState/zeros"
  op: "Fill"
  input: "rnn/MultiRNNCellZeroState/BasicLSTMCellZeroState/stack"
  input: "rnn/MultiRNNCellZeroState/BasicLSTMCellZeroState/zeros/Const"
  attr {
    key: "T"
    value {
      type: DT_FLOAT
    }
  }
}
node {
  name: "rnn/MultiRNNCellZeroState/BasicLSTMCellZeroState/stack_1/1"
  op: "Const"
  attr {
    key: "dtype"
    value {
      type: DT_INT32
    }
  }
  attr {
    key: "value"
    value {
      tensor {
        dtype: DT_INT32
        tensor_shape {
        }
        int_val: 64
      }
    }
  }
}
node {
  name: "rnn/MultiRNNCellZeroState/BasicLSTMCellZeroState/stack_1"
  op: "Pack"
  input: "rnn/strided_slice"
  input: "rnn/MultiRNNCellZeroState/BasicLSTMCellZeroState/stack_1/1"
  attr {
    key: "N"
    value {
      i: 2
    }
  }
  attr {
    key: "T"
    value {
      type: DT_INT32
    }
  }
  attr {
    key: "axis"
    value {
      i: 0
    }
  }
}
node {
  name: "rnn/MultiRNNCellZeroState/BasicLSTMCellZeroState/zeros_1/Const"
  op: "Const"
  attr {
    key: "dtype"
    value {
      type: DT_FLOAT
    }
  }
  attr {
    key: "value"
    value {
      tensor {
        dtype: DT_FLOAT
        tensor_shape {
        }
        float_val: 0.0
      }
    }
  }
}
node {
  name: "rnn/MultiRNNCellZeroState/BasicLSTMCellZeroState/zeros_1"
  op: "Fill"
  input: "rnn/MultiRNNCellZeroState/BasicLSTMCellZeroState/stack_1"
  input: "rnn/MultiRNNCellZeroState/BasicLSTMCellZeroState/zeros_1/Const"
  attr {
    key: "T"
    value {
      type: DT_FLOAT
    }
  }
}
node {
  name: "rnn/MultiRNNCellZeroState/BasicLSTMCellZeroState_1/stack/1"
  op: "Const"
  attr {
    key: "dtype"
    value {
      type: DT_INT32
    }
  }
  attr {
    key: "value"
    value {
      tensor {
        dtype: DT_INT32
        tensor_shape {
        }
        int_val: 64
      }
    }
  }
}
node {
  name: "rnn/MultiRNNCellZeroState/BasicLSTMCellZeroState_1/stack"
  op: "Pack"
  input: "rnn/strided_slice"
  input: "rnn/MultiRNNCellZeroState/BasicLSTMCellZeroState_1/stack/1"
  attr {
    key: "N"
    value {
      i: 2
    }
  }
  attr {
    key: "T"
    value {
      type: DT_INT32
    }
  }
  attr {
    key: "axis"
    value {
      i: 0
    }
  }
}
node {
  name: "rnn/MultiRNNCellZeroState/BasicLSTMCellZeroState_1/zeros/Const"
  op: "Const"
  attr {
    key: "dtype"
    value {
      type: DT_FLOAT
    }
  }
  attr {
    key: "value"
    value {
      tensor {
        dtype: DT_FLOAT
        tensor_shape {
        }
        float_val: 0.0
      }
    }
  }
}
node {
  name: "rnn/MultiRNNCellZeroState/BasicLSTMCellZeroState_1/zeros"
  op: "Fill"
  input: "rnn/MultiRNNCellZeroState/BasicLSTMCellZeroState_1/stack"
  input: "rnn/MultiRNNCellZeroState/BasicLSTMCellZeroState_1/zeros/Const"
  attr {
    key: "T"
    value {
      type: DT_FLOAT
    }
  }
}
node {
  name: "rnn/MultiRNNCellZeroState/BasicLSTMCellZeroState_1/stack_1/1"
  op: "Const"
  attr {
    key: "dtype"
    value {
      type: DT_INT32
    }
  }
  attr {
    key: "value"
    value {
      tensor {
        dtype: DT_INT32
        tensor_shape {
        }
        int_val: 64
      }
    }
  }
}
node {
  name: "rnn/MultiRNNCellZeroState/BasicLSTMCellZeroState_1/stack_1"
  op: "Pack"
  input: "rnn/strided_slice"
  input: "rnn/MultiRNNCellZeroState/BasicLSTMCellZeroState_1/stack_1/1"
  attr {
    key: "N"
    value {
      i: 2
    }
  }
  attr {
    key: "T"
    value {
      type: DT_INT32
    }
  }
  attr {
    key: "axis"
    value {
      i: 0
    }
  }
}
node {
  name: "rnn/MultiRNNCellZeroState/BasicLSTMCellZeroState_1/zeros_1/Const"
  op: "Const"
  attr {
    key: "dtype"
    value {
      type: DT_FLOAT
    }
  }
  attr {
    key: "value"
    value {
      tensor {
        dtype: DT_FLOAT
        tensor_shape {
        }
        float_val: 0.0
      }
    }
  }
}
node {
  name: "rnn/MultiRNNCellZeroState/BasicLSTMCellZeroState_1/zeros_1"
  op: "Fill"
  input: "rnn/MultiRNNCellZeroState/BasicLSTMCellZeroState_1/stack_1"
  input: "rnn/MultiRNNCellZeroState/BasicLSTMCellZeroState_1/zeros_1/Const"
  attr {
    key: "T"
    value {
      type: DT_FLOAT
    }
  }
}
node {
  name: "rnn/multi_rnn_cell/cell_0/basic_lstm_cell/weights"
  op: "Const"
  attr {
    key: "dtype"
    value {
      type: DT_FLOAT
    }
  }
  attr {
    key: "value"
    value {
      tensor {
        dtype: DT_FLOAT
        tensor_shape {
          dim {
            size: 128
          }
          dim {
            size: 256
          }
        }
        tensor_content: "[z\255\274\206\017(\274\221\025\325\273a\360\327;^P,\274{V\246\274\354\027\272<\315\004\200\274\036&\266\274G# \274\036.(=\213\256\330\275Ln\000<\346y,\274z\023\034\274^\016\250\274\255J\224;\275\013\016\274\357\327W\274\257^\301\274\263b\033\274\267Fm\274\033\273\222\274A\032\303<\276\030$\274\344\037Y\274\177\3624\274\360\037\267\274\245\305\360\274\263\033\272\274\000tC\274:\237\335\273\273\314\267\275q\344F\274?\215\211\274\355\007G\273\352\334^\274F\177\300\273\200R\245\274l\"c\274\215@\021=\010\373$\274\316j\342\273\360\252\255\2744\274g<\370\304\020=\r\321p\274\340\333j<\360\024M<PhJ\274c\2634\275S\227N=\375\361\331=!d\234\274t\276I\274X\250\241<\202y\371\273\":@\274^\235\004<\230N\355\274\232\r\026\274F\327v\274\203\314\027\274\372\323p;\317\031\261<\203\'\212\273\326\216\232\274\243n\n=\026d_;\236\356\004=N\305\274=\307\226\000;\3100D\274\236K\301:r\203\267=2\227H\275\221@\203\274\211\213\347\273\300\254;\273\272\020\255\274\002\245R<\025by\274\026\275\364\275\355\262D<\226\0023\273\224\253v\272\321 \320;\323\\V=\342\240e:Y#\260<T\330\3349l\341\220<5q9\275#w\212\274o\262\223\272\242\035\016\274h\017\301=P\025\243\274k\246\376;\340T\231\275\270\332\024;:Q\237\273\337\315H<G) \272\205\275\300\274\272\010\004\271\033N\264<{\351\016<\234\325D\275\315\226\244\275\222\024I=rX\013\276\264\357K;(\'\246:\360$\374=Q]|\275P\262\014\275\311].\273.\223E\273\344\"\301=\377hf;j\212!\274B\335\203<\227\200\344\273\240\316w=\010r\274< \003\240\274\370\177c<{`\204\274\304\265>\2748\337.\274G\251\030<\307\202!\274\266@\221\274\035i\003\275w\237S\274E\3232\275\234s\034\274\245w\334<C\2146=\260X8<]\\!\274\2332\t\274\233\253\211\274\232\367\327;\377\003A\274\214o4\274Qh\231\274\000{\001\274\273\365~\274\313\303b\274\032\377\241\274(\230\007\274.\317\233=b\017.\274\245\341\221\274\023\300\022\275\222J\214\274\321\021$\2743v!\274TM\206=\311\265O\274ttY\274^\243\257=\215\276N\274\362\373#\274\317\342\205\274\031\004\034\274~# =\364\341\010\274;\210\014\274\003k\211\274P\013\266\274\370[:<T\003F\274R\000u=\303O\'=\303\234*\274\250\002\005=\007\246\007\273\r?z\274[3{\274\266\3135\274\250\025V\274\203D\306\273u2d\274\322@K< \246\022\274*o\021\274f\311`\274\030.\002\274w\322\321;.\206\337\274{\252{\274\206ds\275\360\013\234\274\216\342v\274\3121\371\274\211\345Z=\357}\260\274\035\205\276\274if\202\274\330\223\230=2\200g=#Wj\274<\203M\274\026\344d\274Y\321\273\274W\310x\275\365\355W\274w\240\207<\255T\321\2741NR\274\206\240\267\274S7\244\274%\271\242;\343\200E\274j*^=-g\246\274=\216\333\274\360\024\'\274.\344\336\274\306\014\202\274U\201\014\275\253$}=1\032\244\274g\315\227\274.8\201=\322-y\274\361\271F\274Vc\303\274\26586\274\010\026)=\352@M\274\266]Z\274\243\206\301\2741\220\243<\307l\250<9\244\263\274\216y\203=a\222\305<\007\305c\274\036\212\223<\230\324m=D\2634=\251\026\260\274\232\035\242\274\235\320$=\323\314\253\273^\270\025\274\330\214\260;\331\321\343\274\275\037\313\272\0179\364\274\267V)\274\272\202\204\275\367\256\320\272\017u\010\272\320N\205\272`\003h:\375\031Y\272l\255\204\272\004\326\317:\327\305\274\272Nw\212\273mG\024\271{\343_<\251\271\354\275\311\021\001:\216k\231\272\2232\216\272\212\3026:l\242\366\270\010\340,\272\230}U\274\352\275&\2735F\200\272\242\016\325:\217\315\311\272\346\271\244;\204/|\272\213w\r\276\026a>\272\035e\360\271\345\0236\272\307\207\254\272\273\027\200\272\316\275o;\233\225\366=\031\253\244\272r\037\362\272\200:9=\002\370\305\272\357\314\360\271\004\336v:\222\'\257\272\344\350\373;O\344p\272\177i\027\272\330\355\316\272\013\353^\273\250k]<m\303\203\272\343(\220\272\332%\347\272e\352\3728u\032O\273V\374j<\365\177\032=^(\357\272\257\220\200\272\257\000\234;\360T\2039\204:b\271\245\022&:p\225F;*Bz\272$~\334\272\017\006\310\270\203l\2718\027>\344:\275\026\2619\020\177\177\274`S\005;<\273\225:\210%\366:\307\006?>F>G:v\212\031=6\215\305:&\031\270<\305\367I\275!\0072\273\244\213\201\273\274\211y9ao\340\271Z\367}:z\265-;\225^\235\275\247\241\340\272\365\343\030\274\233\354/\272\205`\2229\000~\250<g\t1;\364\036a\275\360\034\2679\037\344J\271\224\371\273<\374\366\n:\252\274\352\272\221&I\274\310\303\231\276\211]x\273x<z\273<\211\362\2754v\303\272\236\357`;5\360O\272\337L\221\272\232\222V>F\332\354\272i\247$;\325\214-\272#0\203<b\363n<\204\302&9\271\310\272<\366\335\237\275=\230\013\273\2008\363\275\270\013\315\275\327E\265=\200\210\002:\232\314\333:\242\274\213\273\242\013M<\355\243\226\273\264N\244:A\346|=e\225\275\273\314\304\211\271\004*\376<99\300:v\010\206\272?\341A\272\354n\230\272\326\211\335:\333\373<\272\202\374\225\271\215Y\r\275\211B\252\272q\274\315\272\230\314\234\271\326^\177=\206\3335\275\030\324D;+\247\223\272\3003\202\272&\027_9\005j\233\270\306\0004\272\017\361\362\273P\211\035\273\361\341q\2728P\315:\300\352\216\272*E\207\274\323sk\272+\242\240\274\344\314\221\272\226X\r\272h\035a\271\003>b\272p\317=\272S\007u;\304\371\235;q\371\267\272\201\375\236\272@\300\310<CD\264\272\3078\334\271\314|\3639JN\233\272\261(G< \324`\272\221\331\r\272\260+\203\272\373\r\310\273\003\251\300<\026\372U\272v\030\230\273\215\247\024;\337x\3239\202;\230;\252K\302<\362\257\007=t\233\255\272\222Bi\272{]\252;\360\226\2709\034\312+\272\253U\376::\361_;\037\004E\273\2034\230\272\021\305W\271\017Q\3169\264\233\367\272F\202\303\272a\314&\273\023\224\246;\334z\226\272\t\000\037\273\377\371P<P\303\357\272\027z\230\273n\217\250\2720\272\215;\265.\003<\001g\023<\003j\240\272i\223\215\272\267\214\002\273\204\212\237;\364P\217\272f\n8\272\216tH\273\273\233\242\272{\037\r\273\330\205\334\272\257r.\274\314\206\205\272\332\236a;\243\361\366\27289\322\272v\242y:C~\330\272\346\363\224\272y\247\230;\227TB<\226\031\026\273\361\323\332\272<\300T<YE\315\272&v\251\272.\000\014\273\237\016\256\272\022b\002<\370\216{\272\207\252\033\272\032\371\317\272\02394\273{b\220;\032\021\266\272D\342\356;k\215\034=[\267M\272\361 \010\274X\224g<:\\\364;q\240\005\273z\250\356\272S\326\312\271\312\235r:\317u-\272[Y\301<\371A\272\272\213\317\203:\r\302\n\273\253\210;\271\261D*\274\211\344\'9!\024S9\210\324*9\253\244\3108zk<9se\202:\340\276`:O\213<:\265Z\241\273\216\301\257\271R$\232<\005k\t=\230\315\0138\213\211\224\270$\275\3779\267\360\004:@\211\0018-\363\17793\377\362\273\256\231\2579}\314[\272yo\201\272\234d5:}\304\214;\346\205\0149\205\367\004\2766\377A9\026\227\202\272|j\365;q\230\264\2716y\336\270J\352:;KL2\275SL\233\272\233\365\232\270Y\340\224>\366\334\2749\262\265\3729\013\000\327\271y\364\351\271\027\352H:\271\325\3729\2222\2129r\242\363\271\267\255T\273JV\225<\224\n\207\271\355E\026<\273\320);\225\005\'9j\362\2218.3\224<.\316\013>\023\214\230:\243?8\271\021\222\32799=D:\360\225\001\271\302\"&\271\367\022\374\273\003\341\n<\'<[:\224\212)\271\026\306\020:\300G\223\271/(V\272.\t!;\r\252L\271\231\357=;v\024\2668)\323\375=\037&\205:\277s\257;\240:\210;\020D\032<\361Q\003>\273\311 :\2317\263\273\210qN\273i\353`9\345\301J\272\335\035\370\272\207\327\031\274\346\022\363\272<qq\274\275\323\301\272\301Z\233\272&Z\202\273\246\246k:\271\337\">G\377\2179w.\263\272\033G\3338\01404:\005\303b\271(\324\277\273\345\371\321\276\231\250\362:6Z7\272 \321a\275\3679\210\272\267\316\301:\255n\024\2720\344\033\273\026\327 >\243\014\2779\232\036+:<\247\253\272@\t\t\275X\025\310;Fy\342\272~\246\373\275\213\330\270=\337\251\261\273;~\373\275G+l\2766\237\375\275\034@\013;! \301;\365\r.\275;\200\277;\273\232\r;L\004@\271\033Q\016;\326\035\261=M44\271\333\374*\273h\312\2469H\000:8HW\2628\256\356J9Ww[9\361v\0259)\267\024:\256p\255=\363\270%:\314\233\315\272OG\303\271\340W\344<\360g\300\273\231J\216\272\220`-8\321\022\002:\232:I9\341.$\272\365p\2149\027\023\377\273\343\323\3649\222O \272k\222\253\272kd\0169w\265*\275$\237\0029\316\361l=\221\361\3308\314\031\014\272\247\014\242;h\320\212\271\024\326\'\271\246\003\210;\017\202o\274\325\350\222\272~\346\3618\273l\276<\202/\2308f\224\2359\r\302\270\271\340S!9c\305U<\351\317\3659\275\235\2649\257\\G\271\342\242\216\273\371\0317<\370\375D\271v\211,<}\2404\2742\204\014\270\251\261E<B@\210;\254\205\002=E\317<:Ed\036\271|\177\262\272\224\372\03694x\2059\304q\026\272\332y\327\273;^G<\"\361\017:L\266\213\271\367\007\034:Y\277\2168h}!\271\244\035%8\354\270\246\274\302\025!\271\"\354\3609\027\374P<,f\2478h\031\246\273\262\351\2709\317\306\020\273sd*;\230\350\256;\336\010G:\261\207\224\271\242=\322\272m\002\363\2728C\027\271\024\230\200\273\335\313\213\272\276ma\272Z\364\307\272\330\013\017:\310\311\257\274\316\02638\230w\215;\336\341\000\272\3540\006\272\375\267\227;\221\325\2108\352\351\34780e\020\273\364P\343;\030[\016\273\342M\356\270\010\306#;\021r\3449\262kO\272]h\304\271\241\254\2139l\271!<\241\231\2359Y\351\3019\304A\220\271$\352Z\273R\037\330\271\2329\033\273\223\353><\321\331\277\273\n\274O:R\276\226;\275\020\264:\224\260\206\274\313t\242:=\362\007\272\306H\2529\374~\3469\022\215\364\272O\024\217<5\302\000\274\211\240\336;\312\257\241\271\025tX\271\201\320\336\2720\207\3649My\213\272\005\013\330\271\305(\017:d\035@9\340z\3178\346\360b\273\337\211\254\272Zy\030\273y\023]\270\2453O;W.\"\275\240\350\333\267\225\203\021\272uXg\272\253\312\003:\rN\'9\014\022G\272\3677\310;\323\016\002\273\270\244\264\270|l\320:\265\270\207\272C=\222\273[\0103\272\241H\226=\007|h9\376\241s\273I\177\"\272\311\206\267\272\302y\300\267d\251\336\272\360zr<\334P<8\374\275\227\272T{e\276,\235\306\272:\244\206\272PG\2409\317\211\200\272\260]\236\267\260\256\216\272\0274$\272y \312\272\220p\312:\033\202\343\273\230fO\271p\332\340\272\315\201:\272\346\035\':!\022i\274\212\340\213\274r\336\361\274\355\300\226\272\\\376f\272\334;\";8O\260\271\264\231\001\272\254\337<9\034\322J\274\242\351\2759@\017*\270M\260\037\272\334[\003\272\314\330\277:\'2d\273j\005\006\275\307F/;\177\n\261:\r\353`;\336\372\355\275\216\341F:\344\325\272;e4\222;R\351\037>\320E\213\275\325\332\001\272\367\200\207\273\300l\341\272\020\365\024:\1770\3069\333>\207\273\252\315\225<\372?\256:\324o\347\272\301\336\203\2733l\336:U\201\363\275GY&\273*p\006\276XH\033\272\\\nh\272\214\225\210\275\256o\3009\0352\2379`\030\237\271F\250\333\275\242\351?\273#\257\333:\260\215>\275\340\026\310:\030\234d\272\355\347:\272NM\274\272\ts\331=81w:;\350\205:\302x\2079w-\236\275\212_A\275\372V\032<i3G<\235h\005>}\014\232\273v\214\005\275\241t\004>yF\221\275\376P.\273\340\211\225:\353\014\301=\010\r\320\273\346c\326\272\277\002r:\353\276\005>#uY=\257\225\3738\224\213\330;\275\240\255:\350,\2349El\177\272\333\013I\2728\3730:4g\202\270\322\022M\270TU\343<2\221\242\272\226Jl\273b\202~8\273b\003<\266_\360;W\245\2559\323\314\024\272\014\277]\272\013D\2139BC\3508\342\366N\272^\241\342;\257\232\236\272\226\260\2257\026\246\314:P\013\026\272\rd\374\274\241\227\035\272\206\336\255=\330bT\270\257\000.\273\260\212\022\273`\255X\272\252\005\0209\320\2437\273\305\201\240\272\252\225\343\270+\033^\272;n\253<\231Y\260\272(Z\237\272\365{\306\270\200\264[\272\326H\251\273c\037\211\272\301L8\272p!\225\272B\326\372:\025\367`<Z\016\254\270u\353\244\273\215\004\227\272\213\020H:\002\305C\272u\202\005\274\232\270\245=\332_o\272Q\021N\272--\263;\017\222\253\2718r\250\272\300\262\2629\226\014F\274\234\242\221\273\250@\026\271\037\377\017\272 7D8/1\2549\010\264\267\272e#\315\272\256\353\2359\036\347{\272\004\014\302\270\0075\324;\261r\302\272\305j9\273<\272\202\272_1{;\326\016f;\2754\032\274c\370\222\272\263\247\220\272\241#O\273\211g\025\274k\211\213\272>\372\331:\002<\305\272\307\200\3707\331\202\361\272\227Yu\272\243\232\263\273\323\372\204\272\032EG<\201\362\304\272\023\343\227\273\375\335\017;\200\004\367\272\0308\270\270\355AB\274\243N\214;\334<>\271\347\232\213\272\334\200\262;\r\023\331\272\363\366\251\272\177\\\032\273\001\362r\272\340 \244;pO\224\272\234\000\217\272\224k\025\273T\0028;\316\334\253:<\321\3739$\207\034<|n\305;`\321\230\272\326\307\014\2748\220\315:\222;\030<C\322\307\272\236\362m\272\356\354,<=I\306\271\201\332\211\2728A\026\273I\313\301\274\r\377\211\273\233\334\211\272\326\0036\272\250\200\000\274X,\032\2746<\262\273\352\024H\273\233ne;7\345\222\273/\222\023\274\001\267\236<\263\217\253\273\214\316W\274\030\355\220\273\206\016\205\274\0218v\276\325g_;N[\224\273_}_\273\216\202\027\274Y\354\330:F\316\233\273\246\300j\275Q\004,\274\271\216\224\273\020b\222\273Gr\341\273l\206\326;\251J\210\273\272\'\215\274z\216\231\273\36697\274<\262\332\273;\271)\274+\034\242\273\013+\273\272%L\314=\212z\244\273ZF\337\273\254,\253\275iH\275\273g\302H\273\026f\001\274UV\243\273\020\010c<_\001\201\273b+9\273X\355\t\274\355\244\210;\245J\262\2743\275q\273\207\257,:EG\031\274\027\220\231\273\203\265\255\274{i\222\274\013\262S\275\033o\024\274\223\177\216\273\372\2020<\325r7\273\212\362\275\273\363\\n;\361oc\274=\241M<\267D\271\273\211l9\273\264N\314:\272\203K<\331\344\236\273\336\321\203\273\344f\010<~\361j;kM\226<z\246\351\275\003\332\266\2723\261\t\275\200\325~;\031\270\\\275Q\252M=~\220\020\274[\360\311\273Q\354\t\273\3269\364\273+3\307;\004\260\332\274,\365\323=7\210\352;\035D/\275\006\353W\2730?\236;\n<R\275\212\317\305:\344\t\224=V\304\200\272\0250\320;\315?K\275\217\224\265\273\004m\220\273\376}\275\273\314T\022\276[\016\252\273\333\217\321:\311Hc\275\020\360\322\272Y\275\001=f\212\2279\255%\236\272\020\256\016=\037\2613:\013\254Q<\360\t\310;@\027\310=Q\321\302\275P\355h\273\333\344`<8\335\347\274\357\336\360\273\324-\010\274\'y\022\275g\236\342<\351\033\225\273\203\003\303\272\271$\210\274\2427\3319\350\325\001\274\306\310\372;\215\227<=\212\033\314\275\206\001\n<\031\010\272\274P\235\255;/|\335\273\003\374\271\273b\255\312\273\210\350\303;\247\264\213\273\316\343\353\273\321QW\274\320\365\224\273\332o\223\274 \233\213\273\374-\014=U1&=\251\353\275;\327U\210\273 \303M\273\251`\361\273Q\316R;\223X\310\273C\330\350\2741!\005\274\336\373\274\273\342#\246\273.\337\251\273\377\324\255\273\327\346M\273\217\272)=;\326\220\273\216\223\014\274\364\246\357\27307\367\2737\220~\273\355\317\356\272\277.\355<\n\'\236\273x\227\251\273\206\252\222=Q\223\255\273\220\324\251\273\014\001\324\273\222\'y\273\316\313\252<\005\260d\273\256\224.\273Y\310\305\273\225E\033\274t\214\270\274\314\243G\273\223P\307<\3407\320<\214\220\202\273\272XC<\332\346\246\274S\007\242=9\356\344\273\326:\205\273Y+\274:\324r\272\272k\003\334\273\311-\312;\235\235<\273#B\227<es\234\273\222\2506\273\204\016X;\303W=\274\227\276\021\274\335\006\234\274|\225\372<\351\225\305\273h\035Z\274\001M\025=\207B\357\273\270\021u\274m\022\330\273e\362\330<KX\353<\263wL;lF\261\273C\355\243\273\274\007C\274\273\007\322\274\261\257\361\273\346\267\276\273\337\222D\274\247#\233\273\325\203\003\274)\346\001\274\344\300\236:_\031\261\273\337w\005=7\300\010\274\3627`\274\226E\005\274\376~F\274@\277\332\273\350g\205\274@@\010=0K\326\273\313\237\353\273}P\000=\2568\322\273\244I\356\273\317\3128\274!\376\213\273 \262\210<\177S\241\273xV\226\273\271(\033\274\r4\324;L\373\2009\020\361\233\273Hf\002=\3454\010=\322h\250\273k\216\n\274\t\352\345<\341\242)=\253\344)\274\301`\314\273\372p\243<\370\253\026\272$u+\274\251\353\036\274\250\232\003\274\274k\235<\274HI\274\277\007M\273\017!\007\275\243\021\313\273\\\026s\273\241;@\273\010\252\026;\264\211m\273\317\227\344\273\264\030\367;\013\305\270\273\014\314*\274\202\327X\273Y\262\355\273\324x\213\2762\316+;\016r{\273\003KM\273D\227\323\273\277b\177:z\252:\273\360\237?\275\017\217\000\274\316/\325\272o\002c\272\254\345\304\273\205\251+;\376\364;\273\212\203\213\275F8\212\273s\230\r\274\253\000L\273\010\350\356\273\300\267E\273\231O\300\272c\021\327=\tOs\273\363\306\240\273\367\0218\276\355\223\254\273\327d\312\272\332\"\207\273]ro\273\0208\371;LUT\273\005\322\017\273up\335\273;\244/;\341\271\035\274\201E|\273#O\313\271z\177\t\274<T\201\273T\037}\274o\020\023\275\311\026C\275s8\374\273\264\364c\273:\335\342;\251\002\250\272K\246\227\273\036\323\';\253\342\247\273\240\301\000\273\005\233\252\273zX\266\272\027\246P:\213\235\366;\265I\235\273b\315/=\n1\375;\024\034p;\351tg<\2674r=T\247b\273b\235\231\272\243t\327;\343\260\273<\327(\346<+\314\306\273\014\212\010\274@\223U\272b5\036\273\\7\216;\240\213\202\274w\026@\274Ix\273;2\343\213\274\224I\257\273\262\361e;\006$\334\274\205\200\344\272\030\027\276\275!\007\205\273m>X;[\371\002\274j\344\000\273h\250B\273\340\377\355\273&\301\217\275f\351\202\274\365\241c\272\225\305\013\276I\310T:\227\243\t<\271\303\331\272\030Ei\270&\275\026\275v\036\310\272\355\007\013<hXH;U\266\235\274\242\343J\275K\371!\273\314Z!\275\263\227\202=\t\177\207\273k==\275\034\001\365=1R\266=g\232W\273\002t\231:\251O\212\274))b<4\340\340\273b.\305;\354\340\377\274\223\"\014\275\346\024a;t\216X\273\211p\246;\206\016\223\273{\310w\273MJ\223\2737\306\202;\036\\Y\273\3653\261\273<\031\240<\322\016\241\273\\\241,\274\022\026M\273\241y\263=\275\007\213\273H\026\257;\246%r\273E\351>\273\364Q\254\273\235P\024;xGe\273\325EL\274\256\341\304\273<\023\025\273n-\265\272\020\274\215\273c!\300\274iD\035\273\022\240\225=d\005\210\273\001\377\324\273\273\241J\273\255\313\244\273\263|\014\273~VM\273X\222o<\023\300y\273\261\273s\273\362C\244=\306z\241\273\335-/\273\334\256\200\273\177\024L\273\256zM<\211vJ\273\320n\004\273a\354\235\273\240\264S\273\344@\303<J\210D\273\223\334\260:x\246\207<\032ZF\273\232<\322;m\247\024\274\365u\353=>\267\277\273\211\233N\273\347\333\327;U\2513\272\347\211\256\273D1\237;#\250\210\273W\000\270\2732\210\220\273yU\271\272C\2616;\221\245\r\274#\237\304\273g\266C\274\214\n\273<\232\361\214\273D\005\'\274\276J\320<M\323\304\273\017jM\274{^\246\273\017\032\257<\273i\250<\377\304\254:^u\200\2730\274t\273\351i\"\274 \220u\273\n\247\214\273\\+]\273\014\342\013\274(\266\370\272\315\326\317\273\347\340\333\273\201\336\343\273\302\277j\273P\312\235<^\207\304\273\243\0326\274:F\373\272\212\242\021\2747U\200\273\233\317\205\274\366\037\303<`\265\237\273\237\371\244\273a3\265<rZ\266\273\2720\207\273\\\373\030\274\252|b\273\371\t\343;\314\016b\273\"1a\273\263\204\000\274`N\327;\235\361\024<\227\035~\2733\221\271<\257\177\302<f\266\223\273\026\013\013<\002\'\230<\266L\014=\334\350\016\274\332:\211\273\345\335`<\205\340\376\271\rP\241\273}VY<\3200h\274\364\361\024<\002\221\025\274\362\351\314\272\356\237\300\274\315Q7\273qg\013\273\244\345\273\272ef\317:\336\222\025\273\253t\270\272\024}\227\274q\232\004\273vLM;\236\346\316\272\274\2519=\3668c>\"u*9859\273v_\275\272\317\224\014\273\230l\2478B\002\010\273\307\217_=\272\310\260\273A\341\363\272\266\277\304:\220f\035\273\226\257\036<\356Z\235\272\216\302\017>\356&\274\272\177\365\356\273%.\247\274\333\234\275\2736\270\234\272\326\004\311\273\322\343U\275s\000\244\272\264J\355\272\033|i\274_\016\034\273*al\273B\341\020\2739\207\030\273R\300\023<\333\000\n\2733\023\320\272\264?\206\273\315\252 <v\220\364;\334\367\3159\217\350\336;8\"\206<\266B\202\272\177x+\2742\241F=\245C\344=s\230+\273E\006\026\273\264\016\317:\317\366\005\272\027Ck\273\225D=:\r^\336\274\204 \230\272Q\210\2209\232\001T\273nTD\271\252\214\007<?!Z\2732u\273<\304\306\267;B\204\3509\337\222Z<G4\350\276^r5\272Ie\253\274\2137,;\010/\006>\036\256\244=\254\260\254\272\341\317\\:\250,%;_\232\245\271\221\213\352:\273z\014;\220\351\233\274mTo;\r\255\031\272NY\254\273\315\352\375:\315\330\r\276\246\350Q8\204\203\025\276\2725\334:J\304\207;\355\215w\275]\250\226\272\014\321\314\273q\002b<\223\304\240<\375U\231\274\254l\257\272\252\016\326\275\311\215\220\272\226ow\271$\021\262\271&\326\353\270\204m+>\020\254>;G\200\036\273T\354+;\371\345\225\274\035s\023\275\014\001\210<\301\301v\276\303\237\226=DjR:\336N\000=\303\213\347<\007\017?\276\237\020\374\273<\227\2319M\017\033>\034\327T\274\230\314B\274\324\235\r;\016\313\223=\036\004\300=J\313\202;m\357\311\274\274\033\373:z\351\003\273\256\006\376\272\026\007\256\272\211\222\r;\371d\004\273\374\242\335\272\372\274`\275s\010\363\272<C\220\274Gh\254\272X\3278\275Fn6\275\320\350\3468;\226\036\273\346D\273\272_1\366\272\014\227@9\364\346\027\273\003,\225<c\302\204\273\363y\310\272\0320_:V\320\332\272\246\330?\275\244\004\226\272\377\365\311=mc\272\272\271\267\263\273\323\306\330\273\317is\273sC8\272\216\226\n\274\231\326\230<`\305\333\272J\236\246\272\215\177\274<J\302\020\273n\035\224\273\247\276\037\273\002I\323\272\344P\351:\251\373\002\273B\\\317\272(.U\2738\3468:\177\352*\274\263\231\2348\024\224\362<S?1;\247,\305\271\237\307\226<T\036r\274\003q\254=K\025\376\272\023\341\010\273\262\001\327\273\213\3369\272p\202\234\273\323\032\3759\"\213\314\274_\341\021\274\'\222d\271\355\230\010\273v-a9\2164\210\273\231\347/\273\376\246\314\273\310%\366\274\226\361@\273\265~k\273\217z.<\310\347\213\273X|;\272\3455=\273\026I\214<\372u\000<\252\317\017\275\003kM\273\351\010\n\273\206M\274\273@<\025\275\226\324g\273\352\236\226<\360\263\321\273\034\005\003\273#\'}\273o\372\026\273\253\366\240\272oW\340\272v\323\033=\271o8\273\374@\000\274P\274\354\2738!\377\273Y`\324\272<+\326\274@\n3<^\251e\273hy\357\2722\336Z<\335\275@\273a\364\274\273\357\307\257\273/\r\352\272,M(<\334d\024\273PnA\273\353\376\246\273\212CD;\236Qr\270\033\335\354\272\254Q\321;\322\274Z<\241o\027\273\033G\023<\355*<<\2314\206<\265\026s\273\365O^\2730\0372<\322\270\251\271\345_ \273}f!\275\271X(\275{e\032\275\031G\312\272:\020Z\273\335\213\236\274?\022\336\274\312Gh\274a\252\202\274}\335\027<\266Dk\274\313Q\331\274\210\2531=\207\307\244\274\321\376\314\274\035\221[\274\350\311\230<?N\246\276\210w\037<\177\342c\274\342\253`\274\r\216\317\274\3447\311;\216\2459\274\374\005\276\275\222\311\371\274\274\353k\2743g\230\274x\272\267\274\302\256\316<{|n\274\212\246-\275\314Kq\274E\016\357\274\\[\207\273\n\025\357\274\266`\206\274!u\315\273kO\246\275LV\215\274\177\277\255\274lA\274=\226\344\220\274\365m\363\273zZ\323\274e\036\201\274\"B\367<\364gh\274\016\264:\274\216X\335\274\350\270\232<\024\000X<\323\261\224\274\264\233\277<Qk\272:\030\270\216\274n\215\345\274\312\034\025=\226\t\004=6\013\307\274\034c\210\274C\221\337<\030\242=\274\335\377~\274\227\0036<9\331\350\274XaR\2742}\254\274T-/\274;\264\237;\023\314\271<\204N\275\273`{\210<\346l\304;\321\216\234;\256\317\r=\243\320\177=]\333\367;\305\201\225\272\340\227\033\273AI\322\273\264\310\271\275H\275\272\274\370\016\001\274q\234\232;\026\225\341\274C\371\227<\013\300!;#V=;\377\350S<\316\330\014=*\236\260\272F\336\030<\t\020\246=d\313\217;\215\324\355=E:2;C\267\247<\325o\336\275\241A\246\274\263\240\016:\354(D\274p\371\251\274\034\014\026\274\266\363s\274\324\307U\275\330.\200<\237{\211=\211[\217<\035\231/\273\376\300\220\27423\266:\210_\202\273[\2539<\2365.=\371G\234;\002\003%\274\272\r;\275r\024\r=\345V\242\273n9\262=\267u\314\275a\241\014>0M\203;\303\225\271\273\301\333.\275\247P\341\272qK?\274\033/\261<~\275X\275Y\231\253\275\001c\352<\2709o\275\217]\223<\022\261\254\274E\230\201\274q\305,\274\233<S<\332|S\274^O\304\274Y%N\274\227\347\205\274oJ$\275\t\003Q\274:\243e=GA:\275\275\'w<\267\360L\274#\254A\274\017V\253\274\247\t\025<\t*w\274\353\266K\275Z3\310\274\322N\224\274\020:\242\274\r\225\222\274\322\267\025\274\332Q=\274\001\354\364\273p-e\274N4\276\274hrO\274[\023\265\274\316Bq\274\220\010\331\273\345,\226=S\253\221\274g\377\216\274e\2259<\033\n\204\274\357!P\274\2762\253\274\361\224`\274\257W\023<<i9\274\207\313V\274\210\325\262\274;\256\274\274\205\0020<\201\373~\274W|\234=\221\024[=Y?d\274sB;=\375\240Q=E\321\320=S\306\241\274\271^\\\274\032W\307\274\266}\006\274\002\301\224\274\026\230\213<qR\251\274>\225\255;\000g\241\274u\375I\274\333\322\010<\354\316\r\275\277n\250\274\301l\225\275\005\254{;\3730\247\274\363N!\275\365\017\231=\007)\333\274\343k\224\274\006O\274\274\242\344\267=\246\030\206=c\213?\274\270\342\212\274qt\237\274\271\204\n\275\036\234|\275\262\237\214\274\317\rQ<\332\216\003\2757\267|\274\001\216\363\274v+\317\2743\242~<\\&\215\274jIw=4P\316\274\263\321\010\275n\017\r\274\312\305\r\275\365]\271\274\036o\016\275.\253\255=\207(\335\274\273\031\311\274I,\250=\302#\242\274>pm\274\226I\366\274\336e\202\274R\'R=\321\002\230\274\211m\221\274-\303\366\274B\227\001=\rt%=\\\341\313\274q\343\266=(\222B=I\347\245\274]\211\026\273\255X\235=\345\335\265=_?\337\274\026\367\301\274\0216b=-S\364\273\216JF\274\035\222\221<\006\324\021;\231\336\343<_\307\036\275\014\221y\274t\313\236\275\212;\024\274\364i;\273-\237\244\273\242\3501;\034\003V\273\246\250\014\274H\357\221<\354\213\362\272\304\244-\274\236\277\031\273\330\267P\275\250H/\276m\321V;\272sF\273G\355\330\272\361\260\334\273\030\321\2439D\035\371\272\373!B\275&\251\030\274\337Qe\273m\247\031\272\n+p\2734\304[<\350\010E\273\0104\003\276\026\212D\273j\244\325\273\357F\226\274\353\210\371\273\327\300}\273\224\353\266;\304\033\207\274\370\230p\273\337D]\273\000\304\245=\246*5\273\217\235\243\272\336\254\245\273\206\202;\273\341\360\343;\323V\372\272\345\324\354\272/}\306\273m\276Z;W\037\337\274\336\315\000\273hF\205\272^j\230\274t\251!\273\270\354\212\274#n\210:\372\027\014\276\313\205\255\273%\263\034\273\221\035v<\261/+:\035\020T\273{\016f;vP\230<i\302j<\034-\225\273\036\034?\272\352\261\000;b\207\207;\212\311\272\273\252\350\260<\306\356\365;\240?M;\r:\354;\320\232,>\214\373\247:\221?.\275\272\246\203:\274C\265\276\337Qz=\273\"\017\274\2322\330\273\014\262\342\273V\207W\273\241\244\231;\226\026\244;h>[\275\256\313,:\246e\262\274\370\225\245\273\0341\233;\005\207\273=k6\335;FG\362>\022\246\235:\332\234f8\364-\013>x\340\2209\374H\344\273S\031\224\274y\357\220=Q\236t;\005\316\210\273\312\006h\275!\265\016;\327o\337;\325\377d\273\340\261\213\273\364\013W=\030\331H;\245\016\221<\314p\017:%d=>>;#\276\202\346\2108\355\243\277=t\2053\276\355\211D\274`\234L\276B}\337\275\362@\277>\336\th\271\353\226\214\271U\220\356\275i\214\031<8\274n:\2601\374;\337\333#\276\004\3530\2764@7;\247\350\r<\033\375X;\207>\310\273+\2643\273\370\'\300\273\016\211\273;\333\257>\273I\267\301\273\312\374%\273\3244\321\272\356\020\024\274%\372\013\273H<\326<\251X\321\274\313\334\306;\306\362*\273\223a\305\272\270\266\245\273\256\004\n;\271\346\013\273\030\257\267\274\3633\345\273\214\260i\273\002X\210\271u\0265\273d@\014=\312\237\376\272\251.\000\276\377\003)\273N]\241\273e\215\004\274v\331\262\273\327dJ\273aR\031<\250\266t<\351qa\273\363\274\016\273\222~\007=\337\245$\273\320\003\311\272\363\356H\273S\225\014\273\337^\341<\261\260\347\272\322c\324\272\307\233\206\273\351\233\257\273\301\246\263\274\037\337\275\272\nL\251<Q\245@<\006t\006\273\372SO\2730$\363<\022F_=;m\202\273o0\022\273\305<\234<\341|\n;\261\374}\273\315W\315;teU<\022\246\260<t\003\200\273\017|3\272\\YV;\221\0072\274\217\363\263\273\223Z}\274\206ra=\201\370\216\273=\244J\274Z\252\001=\342\331P\273d);\274\346Y\215\273\202C\177<\246t\230<\'\372\014=\250bq\273]\n\003\273FY\007\274\351\304X<\332\313E\273cL\301\273\303\375.\274\257\366_\273h\260\263\273\004k\210\273\315+<<\340\220\206\273\371\250@\273\334\033\233\2732\323\031\274\243K\366\273\344\203\r\274a\360\263\273i\214$<\333\026\321<@\"F\273O\032q\273\341\254\274<WiH\273\341G\014\273\265^\002\274\321n\037\273\262\273Q<\220o\024\273\034\342(\273\245V\326\273\'\244\302;\311t~\273$|3\273H(\324<\252\234\267<\263 ,\273+\224\014\272&\217\352<\255\0074=\0367\305\273\\\032i\273\355\251\314<\374\002M;\r\005\235\273\"\n\003=\3300\007=\265>/=@\037\003\274\247\014Y\272\320\313\244\274\347\014\314\272xH\000\273\312\325\307\273\005\027\220:\243\236\274\272\032\326\t\2730\361\334\272\370*:\273,D\256\273!\264\273\272\306{\351\274L\341\000\276o\245\\:\r\335\336\272:\353\321\272\255~A\272pJL9\212\274\261\272\221\372z\274t\275b\273\331\263\t\272\026\024\027;\024\330$\273f\032\037\273?R\260\272\002Eh=5l/\272V\357\253\273Z\263\002\273q\275D\273\000\261:\272kE\3779\010\254\343<\225z\336\272P/\007\273\367\025g\276\233)0\273\210DG\272\253\375\0279.Z\346\272D\237,;\\^\344\272??\220\272\322\266>\273g\006\312\272w\345D\274G6e\272\334\354\207\272)\002\260\273`>\306\271\301\340K\274\004\372\321\274\3218\002\276\n\016\200\273\266\265\302\272\263b\277;\365\370\0059\035\330\350\272\214\277|:\307\272\212\273\324\224V;\340\223.\273\356\362D\272F\371\362\271\240\301\272:-&\253\273\342b\234\274\033\001\216;\035G>;b\377\204;L+\254=wqz\272\272/\224<{\241\347;\351K}\275[\355=<\322\267O\273\263\272\336\273e\324\010\273o}F\272\376{\273:\010d\233\272\337\241\340\274\r\240\320:\177\351(\273MQ\221\273j\227\353:(\370\023\275\2447\013\273b8,\274\034Zr\273\030;\264\272\351\243\351\274\006\222\251:lp\2159\310\217\001\274\303\225\267\275\223\2506\274s\205\t\273C\252|\276\327m\325:cg\022</\341\335\272Vm\t\272\tA\225=\023\211\201\272+\350\303;\2301\\9a\237+\275-\302\231<\220\341\3429\0318\004\276\271w\r=\345\220\232\273\355\330\027\276|\021\216=\016m\325=\346\353\245\272\"\347+:s\245F\274\212\367\351:Q@.\273\264YM;\273$N=(\222\222=\226q\017\272\326l^\273\021BF;JUA\272+5\366\272<\221F\273\303\321\370:\256\201\244\272\256\315\244\272pG\2028&\231\033\273(N\035\273\232B\204\272\254\355\265= !9\275\245#=;}#\324\272GE\301\272\036\256}\272\020\005\3309\217\314\275\2723\361\347:\305?\'\273DA6\272\0348\004;1\330\345\272\255\271\260\274\376\001\237\272\332\301a<#a\261\272@)|\273)\275\210:9\301\371\272\203\375\316\271\343\221\331\271\324\205\035\271z\263\350\272\217\326\311\272t\203:=P\322\"\273\246;\213\272\236\226v\272\261\322\316\272C[\227<\206\240\333\272V\255\206\272\025\327\005\273$S\027\273\256_\252<\3551\t\272\306\352\014<\312\243\022<\276\233j9\274\247\341\273(\361~<\177\267\375=\211l7\273\036;\255\272V\323;<\021\233\036:\232\3262\273\351s\014;\035\371\036\273h#);\201\225\010\273P\207\013\272\207\036@:\346\345\'\273\330|2\273\315D\253\273\034\322\217<\373]\007\273=jp\273\322\177D<H\275\016\273\347+\313\273\344\314\035\273\316M\022<\002g$<xv\017<\233\004\342\272\321\036\335\272P\353\254\273\025\200\271\272\2322\337\272\306\314\365\272\347,d\273\364\266\316\271\2303U\273t\t;\273\225+j;\221\276\000\273\330\276\252;\213\3206\273\026\346\332\273\272X\315:\2252f\273\232m\304\272\276\272\035\27480I<+q\200\272\222\221\007\273\246\032\013<\r\\8\273E5\236\272}\274\226\273\375!\347\272\3213C;\377R\341\272\223\002\002\273Gga\273\037\\\300\271\305\215{;\364\002\306\270\314D\220<\004\254\362<\331h\024\273L\344\036;\204\340f<\205\t\227<\332\372\223\273~\177\306\272y\231u<\317\302\001:\274i\024\273P\215\236<\374u\373\273\367Qz<x#~\273\322y/\272\226\246,\274\276?\255\274&\003-\274\014\313\376\273{\262\346;\002\3331\274\312\"\254\274>\274I=\265bs\274Jk\303\274s\364!\274\374.F<\344\276\210\276\010a\002<\272d-\274\215\335\030\274\007i\245\2746k\242;\214\\\014\274\302|c\275=\021\306\274\357\300$\274\024nl\274\267\376\215\274\004\220\260<%\262)\274x\347\016\276\301\345-\274\254Y\300\274\332F\300\274Zd\274\274\210UE\274o\224\373\272*\006\343\274\213\202F\274b\206\205\274\034j\204\274E\211Y\274\357\230\255\273\203P\246\2745VP\274Y3\247<\267\t$\274\331\204\001\274\036[\260\274\312bG<\020\3163\275\010\nz\274o\014\006<\201$\246:^\023H\274\225\025\245\274g_\217;\374\354\236\275\255\'\235\274\242\341I\274\n\306\312<&)\033\274\266\224F\274\270g\t</w\256\274A\245\302<\362\t\203\274\2641\026\274\030\016g;\242\223\236<,\034\025;\270\246G=\324~\306<\014\277\227;\207\372\377<\314,\253:\342p\375:Je\271<r\304\314:G\032_<\200\"h=Z\203\220\274\230\253\361\273\251\013\342\272\311\320\256\274\222\002m<~\034?<\255U\335\275\326\344*<\303{\203\275\372\316\273\273\255\244\257;\354\311\233\274\224\313f;?\241\232\275\357\030\200:\227\342\205<4\007\214=\n\261s\274\273\254d\272h`m\274\314Jh=\326\215\027\271R\303\2119\335\206\324<\261\361\2229\341M,\273\305\2018<\322\370\371\272\033\367\230=\322$\366:\330\363\321<4A-<\000\223\343<\215\340&\274j\333d<Ld[=\225j-\275\226\375\264\273\304\364Y=T\357\364\2757\320\324=\247\023E\274\037\333\244\270\2768\007=\374\020\006\274\273\343_\273\221\n\204<wR\260<>s\330\275\247\270\274<uB\357\274\311\261W<\357S\203\274\352\233A\274\300\335>\274\350Z3<o$!\274\257\007\225\274\274\222?=\224[E\274y\370 \275\235\321\034\274\375W\326<p\325\320;\251\025D<\233\223\034\274\256\236\005\274|\310\206\274\261\314\364;\205\031@\274W\246w\275,\022\234\274sg0\274\303Y~\274\264\377c\274#\274\026<\352\237\003\274\345\211U<4\322&\274\031_\227\274\260\304\016\275z\'\215\274\250\376\'\274\246\364\n\273<S|=\302\207L\274\210dT\274v\254\330=\307\354D\274\273\307\035\274\264\363\205\274ll\035\274\324B7=q\345\006\274\373Z\r\274\004\353\205\274\376Y\260\274\373>\246<\3467J\274\245\325\206=@\022(=\030\260#\274\330\n\037=b\005\025\274\205\010<\273}\025{\274\375G:\274\374\346\220;\361o\324\273\307\255e\274\206\245\\<\276\010\260\273(\342\226<\346\211i\274S\313\022\274\272c\317;\372\223\334\2740\n\204\2742`\034\275\td\256\272\252\350x\274$\017\000\275\022\355\213=K\263\253\274\314\306\270\274\216\311\216\274}\326\214=\010\332i=+\340\223\273\367\347O\274.\250b\274\213x\330\274\253\254\326\274\324r]\274\214L}9D\261\330\274\005]&\274.E\227\274\312\314\240\274>G\234<N(Q\274\322\014t=\341\306\250\274\352(\347\274\036\226]\274N9\341\274-\361\210\274k7\251\274\242\013\206=\212>\234\274,\200\227\274\360\251\202=8\341u\274\025VM\274\322\203\316\274\320\3217\274\te\340<\374.U\274\323\001]\274\274e\302\274\022\344\271<\232\354q<\342\352\263\274s\031`=\005\024r<\034\007e\274\340\367x:\201OR=\323\205\202=s\355\261\274L,\270\274\033\207<=\001\335\244\273 \265\323\274\306\016q\272j|\t\2746)\004=\357x\373\2740\2176\274\031\013\365\274\250\244\355\274\323\001\205\274\033\021\360\273e\267&<\245\300\202\274\325\002\370\274MPi=\037\211\277\274\315k\322\274\0346\206\274\314\177-=\321\360E=$\277%<\340\250\201\274sd\206\274\313\373\342\274ze\343;~\365T\274\223\002x\275\n\352\010\275=\352\220\274\311\307\251\274\343\273\317\274\363\223\000=\305\341\214\274\356}\035\275]\"\210\274\367\361\005\275\230\032\206\275\022I\003\275\027E\233\274\'`\303\273\214\231\223\275\022O\243\274\236\207\306\274\r\006\002\276!\002\245\274\235\330\007\274I\235\345\274~\203\252\274\254f9=\322\014\215\274>\347o\274\366\214\361\274\221\275\256<\216\324\215<\272t\274\274m/\231<\265\366b<)\253\236\274~\257\001\275\225\351\376;)\373\366\275\367\354\340\2744j\250\274\372\267\037=9.u\274P\200\211\274\t\306E<\'X\364\2747c\265<\310\331\316\274\323O\206\274\252e\252;\362s\322<\333j\010<\216\311!=\020\225T=\222u\255;{\227\032=\242O\275=\362}\307;sl\211\272e\217\235\272\3243\241;\214G >\265\252\305\274\353\033\214\273\016v\320:\240\257\006\275\005\247\252<\304\014?\274\215\235\227\271\002[p<\206%\022\275?\025*\273\217\327\261<\375\3256=\2426\231;,i\250\274*\273\';\341\034\321<\310N\236\274\025\210\271\274~\032\225\272\306lX\274\327\005C<\013\214\034\274\025W\321;\2217F=\241Vb<\334\201\234=6\235\261<\212\303(\273\257\274\017\275\230\010\013:\031\034\t=R,\177<\341y\200=\234\357\333\272\'A:=7\nT=\305\205u=%\244\200\273\224\263\261\274\262\316\307<\313\271\307=\332\354\031\274\"\027o\273\335\255{<:u\271\274r\3176\274 R\301<n\371\310\275V\235\245=k\347\006=\247K\212\275\2027\243<G\325\276\274T\357\222\274\330\022o\2748\032h<7\217m\2742a\345\274\2214?=~K\233\274\363\344o\275U\226}\274\310\025\254\274\"\214&=:S\177<\224\356h\274\332\254f\274\'\270\276\274\242Y%<a\272\216\274Y7\r=\201\256\335\274\022\331D\274\201\366\264\274\313d\251\274\0224\3769\260\263`\2748\357=>J=\201\274\206\247\330\274\220(\242;\371\030\312\274\351\032\214\274\374\230\312\273\324\\\254=\312\305\244\274\204\007\245\274\275\260\357<\367\243\225\274\356:f\274\310\303\273\274\306\342|\274\2236\362\273\246~^\274\365O\214\274{\257\310\274\246\210\t\275\t5\322\273\203$\252\274\350j\210=!\247h=`x|\274\375\240d=[\323\004=\374\'0>\360i\271\274\241\337j\274\226z\331;|?0\274.\024\241\274\252u\234<\244\206\346<\252\010\303<\033\037\307\2746\014\201\274\341\364\022<}\312\031\275\303\301\277\274Af\273\274s\226\200\274{(\274\274\004\3126\275\223\006\301=\016\371\014\275\265\205\271\274\361h\347\274\260@\240=&g\266=\013\343m\275W\323\235\274u=\236\274\367\270\"\275Z_\277\275v{\233\2741\250\264<\206\373\016\275\262\305\231\274(\332\361\274\243\t\351\274\202\367\247;o\027\251\274/\326\326=\325i\021\275\333\332\023\275\330\313\233\274\226\303\033\275\037\233\324\274\'\337\370\274\017\222\266=0\237\370\274\034q\341\274Ok\265=p\361\271\274\307p\221\274u/%\2756\026\223\274\273\274!=\250e\265\274G\305\252\274\204\335\006\275m\250\323<\211\364\261;\345\353\340\274\203`\261=\353\201\315<A5\273\274\\\n\347\274\363\265\212=$^\\=\033Z\373\274\017\327\360\274\373\312\225=\303\322\034\274V\213O\275u\360\255<\225D\037\274\'q\026<\304\2303\275q\004\230\274\344\027\031\275PN;\275&\326\313\274I\376\263\274r\361\202<\3347\333\274\303\275F\275\363\231\330=\342\301\037\275\367\370\244\274\257\212\336\274W\\\215=\260T\250\275\274?r<\371\000\330\274&\004\355\274if+\275\34688<\300\'\242\274\233P\314;/\257U\275I\343\361\274\217\362\005\2750\252$\275\313AT=G\355\355\274\363\331\370<v\217\357\274j[K\275\372\214\204\275?@O\275\330\036\376\274\276\276f\274\177\365\244\275\t\340\007\275\277\241#\275Aw\t\276\320\335\002\275*\354a\274\225\3703\275~\207\037\275\020F\216=[\263\357\274r\346\322\274\244\0016\275\322\242\r=/\274\267\275\032o\022\275\230\304\037=\265\324\205<@\330\020\275q\373P\275\250\321\n=\241\330\240\275\310\030*\275\222k\r\275\030\316$=-?\301\274\004)\334\274F\025\223<T.\032\275 8\276\274x0,\275\274\317\020\275[\353\004<68\361<\363n\207<5\367\000\275z\375(=S]:;S\352<=W\254\'\275\211\016:<w\311\355\275M\223\026\274v\004}\275 \271\246\275\272\330\025\275\027aY\272\257\371\024<xwF\275#\014\n=\231s\242<\315\337e=\205\317\226<%\352i=\262Q\316\273r\017\315\272qR\037=\225X\342;\201z\302<\002\372\333;\375\033\001=\2426C\274\235\250\364\274\343o\206;\257x3\274\266\275V\275w\217\317;\255+\376<\035w\010>\310D\264<\265\003,\274_2\002=<\033\326\270\341\330\276\274\300\317\027\272\t\003\222\274g{\235<\276b\025\275=Q \275\307T\301\274\275\352u=\035\262\201\274\220\227(\273\353\276\200\275y\227\005=\200.\002<jM\005\275}\217\246\273\004b\374:\266\324p\275.\336\226;\217\010\027=\007\341\371<\275h\260\275\275\3561=\215\'\276<\254\352\000=e\013\037\275\177b\336\274u94;{\030\242<\251\013\306\274M\335<\275\356O\367<\277\300\376\274\026{\250\275$f\321\274\030pz\275\335G2=}g\275<b\003\300\274\251\026\312\274t\363\025\275h>\205<\025\324\334\274\n&B\275\210o0\275\253E\374\274\274f\n\275\354G\r\275S\266m<\272\237\272\274\036\032\017>\270F\336\274-a\'\275\037\022\321\274(\253$\275\022)\370\274\356\023d\274\010D#>1\271\001\275o\232\000\275-UM>\2440\354\274\305I\264\274\275/\026\275~\332\325\274VW\260<A\304\302\274%N\355\274:\006\035\275\365\232>\275\032\215\232\275t\267\026\275r\035\306=2\n\245=\001\213\340\274O\205\257=v\025\037\275v\341\366=\366\215\020\275\004a\337\274\216h\323;\322\264\253\274\002\347\374\274\024!\370<\234c\244<^\347\234<\203\300*\275\177\214\271\274\307\220^<>\017l\275\210\336\007\275t\255\'\275E\032#\275\242]\023\275N\277\212\2750\203\013>\224C8\275\270# \274N$?\275\321X\361=~`\376=\2622\334\275%y\000\275\274\\\"\275\323\337M\275d\343h\275\340c\365\274\336\320\"=\340\177V\275/ \340\274\007\320^\275\344\n8\275\371\376\224<N\352\005\275\022\352\365=\361\277k\275\325\201T\275\251l\263\274\341\300o\275\033;+\275\314$E\275\232\223\010>\3744;\275\341\353&\275B\311\372=\366\325\020\275\342\217\261\274\257=R\275\202o\371\274T|r=\361\234\037\275An\000\275\325\023L\275\211\031\340<{\356\005<\330\345M\275\367\256\305=8\250{=Q\000)\275\233\351\014=\245U\314=f\006\226=\217\267<\275\242\002\360\274\336\010\327=p\353\237\274\243\212\017\274:b\217<\035%(;\006\371\365<\240\373\204\275 \024\r\275\363+3\275\346\'o\274\367\321\243\273\035\036\026\273RnY;\303(\370\273\251we\274?\206\037=\314!\034\274\\7c\274\235\001\307\273\006\331G=\240\320\225\2734G\231;%\260\374\273\246\252\260\273\364\212u\274\315\224-;\276\211\211\273\262@\210\274\226\031\217\274h\327\235\273\214\321\000\274p\366D\274z)\237<:\247\232\273\327\367\"\275\021\235\333\273\032\017\217\274Q\217\261\273\206\240\215\274xu\332\273\276\261\306\273\001lG=\321%\003\274\220\024\036\274\356\254\342\275?v\010\274\r\006_\273;\006[\274J,\330\273\317\213\213<u\205\274\273~\317\212\273]\234v\2742%\337;\240\000\004\274hj?\2746s\241;6\305\211<^\"\360\273uQ\352\274\360\007\224\273\220\321\274=_\354L\274c\254\360\273Y\2049<\342\206\314\273\216\315\037\274\031\032\214;=\356v\274\234\350\177;6\240\023\274\252\224\255\273|\036\301:\274\267o<t;\346:\213}\235\275\335\250)<\350\204\0138Xp\317<\014Z\n>7\000\301\273-\010G\275\010\334\360;\250\303\006=\002K>>3\202\016\274&\247\240\272G\3503;\265\315\t\274\2043\001<\226A\264<\314P\242\275\270\246\314;P\325\031<\036\327S\274\317N\261;\345\346\200\275\206\014\227\267z\022d\275\262\254\325\272t6\034<\223i;\275\350\221\274\273\210\262!\273\362c\256\273-\354\r\275h2\000;gS\200;\rha=N\357I\273zM\32291Q\265:\255\377\255:,\351\352=\301_\253:Q\214\033;\224\324\231;\301\306^\275N\343\26193\320<<\035\365\270=;\374\346=A\346\207;W\371\330<\363\000\333<@\355\010\276F\347T\274\271 \327;\332\005\313=\201\333\227<MJ\241;\034c\022<w4y\2753\036c=\255Kf<\243\203\274<\211\235\362;\347]4\274\210\377\275\273\343\355\201\273\332J\304;v)\352\273\006y;\274s\265\320=\010\201\005\2747Y\026\275a\005\305\273\320m\266\275r\323\322=\310\214\374;\326\360\357\273g%\241\273\355/G\274\366\250\222;\021\207\306\273h\240\343\272\013\322[\274\301}\234\273\013e\016\274xW\022\274\030\212\226<\376\306\202\273v\275\002>\376\360\325\273\206\210\\\274\305>?\275\261\313N\274~/\246\273\3750/\274`\304T=\312\207\367\273+2\360\2737\267\310=\275\035\000\274\276>\274\273(\3053\274\\\217\245\273O\263\017=g\177\251\273V}\177\273r(:\274l\026\244\274j\355\"\275\370+\023\274U\233D=\352\215\211<\330\217\315\273o\312\250<\302\037\207\275\014b\375\274\345\237 \274h\346\332\273FRp</\225\265\273\003i4\2746\226\366;\"\023O\274Z#\013\274=\331\000\274\265\\\221\273\211\236P;c\306\233\274\324r\004\274U\244e\274A\252t\275@\023\n\274:3\247\274\265\2478=\212BZ\274\326^\254\274w\020\023\274\265`\373<\206r\023=\\nm\275x\241\371\273\n\355\360\273\317$\231\274\226\036\034\275sG\352\273}\314\301;\246\300\231\274z\330\323\273\377\0273\274\224\341W\274\036\2277<\037\367\265\273\003\"$=\321\2008\274N\327\255\274\205\222\357\273\314|\253\274\210\312\003\274\337\223\246\274\257\363\010=\306V`\274\324\016\'\274|=\017=\021\206\025\274t\357\350\273m\240\217\274\005\013\274\273\021\177\250<\'\371\322\273\237y\253\273#\257\214\274\036\260\264;T\331\305;\200\205\240\274\026\257\326<?\271#\274\301\275\000\274\246\243\035\275\332\020\331;)<\332;8Si\274,\347E\274\021+\377<Q\250L\273;*\255\273\263`\222\273\311\250\244\274\343\216r\274c}\224\274\003 \260\273}N\001\275\\T\017\272\0042\302\270\300\347\2037(\004~\272\222\005\003\272\023\264\307:\225\rl\274\010U\n9a\300\334\273\212\361\"9e\301\r=<\377\256\275R)\311\271\333\310\203\272\275}\2559<\"O:\256\263\247\272\224\\G\272m4r;Q^\223\272\264\346+\270\253=\244:\246\350\2169;\377\n<\367\273\027\272-}\027\276bo59\360\211\034;1\005\235;\017\017\2209&\372\350\271\036\347\3029o\300e=A\2536\272]\231\204\271x\357`>\233\263\247\271\005J\226\272\"\002&:\001[2\272\023\2416<\322b\n9@=<5\304l\223\271H\306\253\273\010\005\354<\277\000\007;Di\254\2719_\365;\317\235\\9\343\226\201;\3433g=\234\240j=\227H\3119\017m\212\271\277\313X;\217]\2608\027\243.:q\325\332\271J\017\243\274\313\017.<6\351o:\035\036\0049\340a\236:\312\301:9\371\333.9x\216\211;5\373$:h\027\021;\232\007\025:T\373E\276W\243\312;\233\246u<\225\247\324\273\232i\311\275\216\201V<\210\305\n\273\365\357M\273\227J\001\274\270\375M\271Hn\234\272\255\212?\273\274:\203\274\264K4\273z\332g\274\r\033\320\272?\211E\272U\301\221=\276\361\334;\307\024\254\275\323\341\006<s0<\272\356\270\242\272\034%I:Ia\020\273px\004\274=X\275\276\351\323\311:\221N\277;}\226\234\2767^\357;\357^\33597\322\234\271\364\335\365\273\354\332*>\317\027?;\236\341(<q7\303\272\214Z\036\274\271\252\301\275\323E\r;\t\304\274\275o\266|<]@/\272\220f\244\274\323\321\204\276\362\374\372\274\231\256e\272\3271\246\273\237\024\301;\304K3\273\201\3062\2739\231\215\271K0\256<Z\317\214=\355\312\017:\264\374\021;\177\307&:XV\261\271\255r\257\270\365$\016\271_Kk\272,\344\224\271b\372X:\016w\014\276\343\230J\2706\314-\273\264\247\2778\036\t\235=g\325\344\274\252\325\310:\341i&\272\342\351p9\206\365\3639$\013\316\272\374\305\027\272\317\340\3528\230\344\3447\2751[\272w&b:ZwI9\375\326\202\274\330\304-7\313(\321\275\024\270\3469\177H\311:\207\210X;\033\376\016:\321\321\261\271\317\252%\272\254\356\332<\230\253U\272\307\017E\271\313\310\337;e\304\027\271\312\177\241\272i\376\3569\342\177I\2716\333><\t~\n9*\"\334\270x\331\350\267\271\303\313\273\201\330\220<\006\330\261:\031\262\323:\250L\261:\222\277O8\311z4<Z]I=T\335\3357\212u\2219z\321X\271\261\217\244:\213\220\2478\031\363\3429\271\216\004\270\3177p\274X\361\232<\3327\016:6$\202\270p]=:L\316\211\272\t\036p\271vq\2649\3343\344\273oQ\"\272\253o\224:\206\234e:\024\26269\033\352\357\273\264\265$\272Z\206\334;.\311\315;r\266\2019\331\371\236\272\374Pr8pg\2549\t\317\220\273E\232\360\271\032\312W;\177?#\2738758\026\360\233\272\310X\2238\307a\227<\002\331D\272\252\362K\273#\2466\272=\357\233:\256#\214;\270\213\0029\301\352\031\272\027*\345\273+\2762<R\241\270\2720Nw\271\316\243\362;W\t\316\271\1775\331\272\335\235\324\271\377\351\246\271\010\367L<R\264!9Z\260\022\2702f@\272\033\324\205\273\025\256\231;=\204(;t.\215<\225\025[<H\032{9\361$\244<\rf\267<R~\004\2739\305\3679\'y\256\271\330\240\321\267.\357\225\270P\032&\270\263\021~\273\202.\220\274\347>&<\251}\257:\265\325G\267\206G\202\2739\237\327\274\263\235?\274\350\234\305\273]\010\360;\342:]\274\260D\326\274\225\350\025=9y\252\274\333:\263\274=|O\274\355\326\342=w@\264>\366\217\004<u\351_\274:\306R\274\326\360\317\274tI\263;\277](\2747\345\371=NQ\360\274\270\255:\274\371\243\235\274\003A\303\274 \344>=;EE\274\375g\020>\356\274_\274\230X\354\274\270\303\214\275\235\'\363\274g\303z\274g\220}\274\002\2543\276\022{\220\274I)\245\274\247 \035\276\364I\212\274\274\222\002\274\200I\322\274#O\210\274\013gE=F\240W\274&\247&\274\024\024\330\274\230\304\222<\266f==6\366\303\274\0204\220<\372\2453=]t\201\274LN/\275\235\202\225=Z\221\235\273WN\302\274{\273\223\274&(\033=\346\224\037\274\373\223t\274\036\035\034<\321\271b\275\215\340f\274\177+\242\274K2<\274~\374\210;\030\224\003=\353\264\217\272WN;=:\362\323<C\214\003\273/\227 =d\215\003\276\007\032U;Z\277\326\275I8\224:O*\021>\246M\301;e\301|\274O\317\025;\2674\376:\000\352\005\275o\215{<qv<\275z\302\010\276\227c\212<Z\364\246<\022\225h\273nq\313;CQ\273\275~\341\r:jZ?\275b@$;\267\322\323<\030\333\256\275v`\272\274\037\224\205:\235\3309\271\\\177d\275\224\236g\274\224G\316<l\365\n>\221B\350\273\301\r\030=\003\231\243<>\240\230;\200\313\241\274\322\226>\272\236\362\350\274\230\374d<\004\313\333\275\341\036\352=\347v\225=e}\322<v\315Z>\363\233)<\357\210s;0\310\033>u\222\350\275J\022\030\275xe\257\273\031\235\202>\335\247\204\275p(\354\2734j\235<S\316\001>\004\n8>\254\306\002=\322\277*\275\350i\214<\r\370\253\274~\230Y\274\362\305c\274H\231!<dPR\274\277\317\304\274\230\314o<\303\260\211\274\377\232\235\275\223\351I\274[\020\244\275[S\236=\301\0326<\205eS\2743\3515\274\007%\261\274u5\363;\276\350e\274\035\373g=\301\304\277\274\001} \274\031\022\252\274\356C\230\274\300\255\277;\311e%\274\210\276S>\204\345V\274\357\213\302\274\270\306o\275s,\275\274\361\003V\2744\260\266\274\177\271\315=J\336\210\274\341\016\203\274:\375\016<ur~\274\346\316T\274+1\256\274a]?\274,f\232=M\016/\274\240\315Y\274r\013\264\274\321\0265\275\300`[\274\305\032\242\274r\330\354\272\344\265A=\322\312X\274\302=)=d\334\312;>\221\265<\021\232\240\274\254}\230\274\214\370\304;\033\255\020\274t\221\223\274\323\374l<<\035\006\275\211\217\206\275u;\240\274.\252L\274\314\270\355;yH\016\2755P\207\274\037z\260\274\2041\231\275\013\371\222\274\337\013!\275\324x\207=uM\333\274\262:\370\274\347\272\257\274\353O\234=\243\267\214=}p\010\276K?~\274\236\351\222\274\262>\005\275\327u\341\275\246K|\274\223PN=\242\033\002\275<iF\274\361;\207\274o\376\327\274H\014\340<O\\t\274\022E\257=\303w\317\274]\314\003\275&?D\274\275\017\022\275\2218\241\274\272\026<\275\r\236\216=0\327\315\274\3329\265\274\310a\203=TR\233\274v(y\274K\310\337\274\0325a\274\007\3769=\263T\202\2742\022\226\274O\034\363\274\036o\321:hwp<[b\306\274(\235p=\275\004S\274gN\225\274~_\367\274\272\016<=]+\023={\035\334\274Y@\001\275\374\024\215=lr\r\274\314F\014\275\375\370\331\274\354\243!\275\337\004\311\275\233j\035\275uKC\274F\213\266\275~)\262\274\236\326%\274%\t\234\273\304\240\325;\347}2\274\322\233\264\274\202g|=5.y\274\271\022\262\274\352\034(\274\302Y!=\r\024\377\275G?\361;\302z1\274O\343!\274(t\261\274\230\270\243;\307\254\007\274\372Z\002\275\354K\315\274\352\005\020\274\243\235\200\274\212\356\230\274\361r\346<\207\375\'\274\003\243%\275\357\014,\274\213Q\322\274\334)\253\274\014\014\315\274\277\014H\274\305\326\225\273\246]\257=J\344Y\274\377w\202\274\250\037\263\275;bY\274\213}\273\273\316\013\262\274\334\020Z\274\354%\340<\233F1\274\341\342\377\273\352\232\267\274\021J/<\203H\211\2755\261\232\274\222\304\357;\021\007[<\332CF\274@T#\275\374\t\214\274\331\327U\274O\002\242\274DUV\274\370\272\357<\267`D\274/\277W\274\260\177\377;\256m\313\274j\251\244<.U\206\274\026\2449\274lIL;\202\322\255<\346\306o\272\"\366\231\275\344\222P<h\324\001:\306\\\t=\225\366\210\275\344\232\2018\324\301[\275\334\'];\313\311#=,P\373=\023\206v\274G\241\272\271}\001\201;\244\376\275\274\240\th<\252\337q<\252\211\241=\330u8<\277\366f<\365\2349\274\342\304\342;g\312\252\275\245\377S;sD\000\276\222\"\224:\246\007\230<\213kc\275\253\234u\274\350\035Z\272q\276\030\274\024\235\232<\277\034\036<E\343\203\274E\322\347=\030\322\242;;\213?;\256GH<y\207\035:\244\376l=\355\245\034;\257d\226<\360\355O<\357:f\274\322\031\312=\353;\020=\261L\r>|\276\003=B\326\201\272G\377\242\275d\353\004>\211O[=.7\243\274a\"C;\222y\276=sX\017\275e\323a;\247(v<u\201\301\275\007\005\265=/\200\321<\027\312\255\274S\345Q<\220g\212\274\033\307>\274M+1\274\242\230$<\016\223)\274V\034\236\274\\\201\303=.\200L\274\364>N\275\343N#\274\366\215u\275\352$\022>\212w.<\332H%\274\034\337\014\274\214\353\222\274!\270\360;\265.>\274@\345\307\274\245@\241\274!\024%\274\300n\213\274\303\276m\274}\376\007=\023\255\006\274W\362+>\314\245&\274\013\361\246\274=\220\261\275u\370\233\274\226\275$\274\333\367\360\2737\021\242=,kO\274BUZ\274\274n\023>L\241F\274\217\225\'\274\276\032\221\274\335\365\033\274\327\231m=}@\020\274k\362\033\274P\002\223\274D\350\004\275\007L\211\275s#~\2743\247\211<(\022\026=j\007%\274v#7=\341#\305\275\240;\331\274\326I\203\274\247\014W\274w\352_<\3407\032\274\365 w\274\245,S<\333\267\214\274\345h\260\274\342{x\274\340\'*\274\213\253\274;K\343\346\274\215Oy\274\212\033$\275X\366\033\275i\211t\274\251\016\007\275\226\204\232=\352\241\257\274!;\332\274\200\254\215\274\257-f=\214\253}=c}\231\275\242}L\274\313<p\274\333\355\354\274Cc\315\274\266\204T\274`\207\n<x\250\333\274W!;\274\372\013\253\274\016\363\251\274\365\216W<\002MN\274:\231\232=jS\275\274`\024\360\274\372ad\274\267\034\363\274x\342\202\274\357^\273\274\352\216y=\232\367\252\274\033/\225\274\221_o=\0356w\274\307,R\274\370\376\312\274ws2\274D\211$=\275\037_\274\306\242b\274\007o\315\274\377o\023<\t\t_< \272\346\274~aP=\371\314V\273\223Xb\274\244\022\232\273Bj\334<Q\212\277<\247I\270\274\345s\273\274\347kP=\210\273\331\273\312\247k\273\032\222\"\274v{@\274NdL<E\374\003\275B$K\274k+\207\275\353g\220\274\025\227\n\274\351\342\246\273!Y\265;WP\021\274\"f\216\274m\251\324<\361\rS\274g\374\227\274\340\347\006\274\310\257K=$N\315\273\224\027\322;(u\022\274\327\363\372\273\201m\221\274\252\320z;\307g\367\273\304\201a\271\340.\244\274\211P\357\273\262\235H\274\021vw\274\005\025\270<\344\364\005\2746\200L=\004\n\022\274^<\244\274\247\2435\275:3\242\274\031\013!\274d\200\323\273j\343\245\275Y\003\"\274\216\245]\274\002\215b\275\230\0209\274\245\020\253\273\251\223\214\274J\204(\274\362\336\010=\"\304\t\274\300\322\267\273>V\223\274J\3300<>{\355;(\013^\274I[\002<\315`\222<\246B\"\274\20243\275\0179\014=}2\006=?\260\207\274\010\263-\274\026\246\227<\327\344\331\273\333\372&\274u\330\330;\3618\324\274L\265\023\274\340;K\274\222\003\006\274\276@<;T\035\237<\t\224v\273p\225\205\275\\\205\260<\001\312\007;\0272\371<\002&\305\275\276\324\025\272\034\377\312\275\275\330\202;D\341D=P+\034>\205(M\274\253\211\216\273\320G\325:&\220\220\274\264z2<b\006\355<\274\003\372\274\271O5<\033\036\036\275\320}\221\273\364A8<\202\334`\275%\014\2749\037\364q\274\2302\241\271\246x\206<\362\206\026\275Y%g\274\267Q\030\273\375\346\313\273\030]\023=\277\036H\274\362\220\377\273\307\333\207\2754\375~\274\302\256Q\275aP\033<\312FT:\017\237\212=F\323X\270\001R*\274\032\361\034<\313\371\320\275\336\\\327=\274t\000=\334Io=t\3231=\303\375\346:i\233\311\274R\372\330=\376\226l\275\346\313\202\274\341\234A:\005b->\037\001\244\274C@\341\273\273\225Y<?Z\235<\236\0139\275k\212\252<\240\362+\2758\261><\370\271\\\274\231F\035\274\355\267\357\273\034\320\007<(^\n\274\213\010t\274\344vZ<\255\014.\274!\357A\275\311\245\004\274\304\207\313\274g\314\200=\027`\030<z\035\n\274)*\336\273\342\021n\274_\211\272;\241k(\274iC\337;\233\375\200\274m\220\027\274\226?Z\2743U;\274!\252\372\273\332\014\337\2738\264\365=\227>\r\274q(\202\274b\022.\275\364\200t\274\026R\001\274\316\315#\274\304\r\204=\207\233#\274\371\235>\274\377\244\371=U\362+\274\322\244\020\274\243\264d\274>\367\000\274\303nt=*h\347\273\000\n\326\273\303Qg\274Z\370\301\274\235\277D\275\307:0\274\2370\212=\\#\017=\310\247\n\274\242\016\330<\233\261\306\274\266\270\223<yHX\274\262=\"\274\334I\016;z\352\302\273\337\311D\274=0)<A\r\024\274\235T\205\274;\0136\2744\025\355\273\247\340\251;\203\221\273\274\327\nR\274\226\226\017\275< \001\275\014\214H\274\r\006\327\274\332\021Z=w\271\233\274,i\305\274\352#\\\274Yjf=W\252L=8\276\203\275\324\260*\274i\2308\274\272)\303\2745,\242\275\'=?\274\317\272k<\317\253\266\274u\275\034\274\247Gx\274\342\377\210\274\324\247\221<\002\336$\274\351Pt=P\306\210\274\3703\306\274\237\303<\274\024s\302\274\355\223O\274\270\323\347\274\257IQ=\245\306\212\274M\314\200\274\206\331f=\223\263P\274z\267 \274\031\010\252\274\360\321\024\274\022\270&=\250\327%\274tC*\274LW\243\274\007\3663<\005T\214<B\257\233\274K\231H=\262\031\215<\354\3373\274N\201c:QS\036=\030\027\004=O\035\232\274\313\220h\274\242\033\"=6[\216\273=\025\217\274\t+\341\273C\265\276\274+du\274\370 \322\274.\021\023\274\252\324\206\275@\03489\241tC\270\352\233\2768\302a\017:\202X\0378\232\274L:t\362 \274\346\253Q8\374\000\226\272\311\325*\271\323\027\304;\025\232\333;v\351\3059\357\227\2407\326\335\351\270Y\013\n\270V\332\265\270\020\370\0328\370\034\035;\324\251\021\272\261b\206\271\323\013\2239I\343)92\203\344\271`\23729\216\260\275<\245\240k\271\303D\334\272t\216\231:{\021\033\272$\025\375\267\016\332\022: i\007\273\364\033\345\271\370~\'\271\321\264\202=f\341\3467!\2442\271\215\343z9\212\250%9\211H+;k\321\246\270\310\356\243\270\235\316\362\271\354~\035\273(\371#;\274a\3139\206&@\273\014\341\246:tk\327\266\"gb9\242\235\216<\365O\255<:\273\2709*\014\321\267\003e,9(V\032:\277\215\346\271\220\335\2779\351\220\000\274f\372\330:\342\216~8\024\3510\2678@\033\266\263\351\0268\250\300\000:b\035A:\2270\3727\277i\207:n\342\2138\315\345\260<\010z,9`.\373:f\337]\271\202\236\337<\204\205\254=tP)\270]\220.\271\206\022\2638R\247\026\270\365\371\"\271I\214\004\272\211\264\357:\303C\224\272\214(4\273\361C\201:\t&\031:\030\306\277;t\037\1779\016;#\275 8!:\210+\2049\0203`\272\314\233:8\366_\221\272\324\355\351\272`\2453\276\345\253\250:\234Z\004\272\265gW\276\332\260\331:;\233\201\273f\246\2168\262\000>9\320\211r=\217Q\256\272!\311V;\226(\272\270\352\376\013;\320\215\265\274=\364\035:;x\"=4\3528=^u]\272\306\347\216<h\002\"\275\302\321\177\275\270^;\271\341\342\337\272\360oz:p\3773;\262\371\037\272o\236\t\272\302\207\250;HX\351<\247St\270\200\022\003;3M&:2\311\3448YkQ\2701\221\t\271BW\3559\314\026\226\266\256\307\020:\343kU\275|\252\3278kJ\020\2720\216\002\271\2624B<O#\351\274@\222\007\271\237p\0148+i\266\270\026\365\2778L\325\2669T3\3718%nc:\272\026v\271\275\331\330\271&w\3459\252kK9l5\263\274z\236V8jf\225\274M\206i\271Y\210\244\272\323\025\202:~u\272\271\000\274\375\267\316Q\3449,*\207\273\203\242G\271\302%O\271\337\330\336:\240f!8\263\3367\271\202\346(9\n~\2438\361\327`;\337\276\010\267\034\247\3508\251\205\251\271q\265\240\273\245\314\030\273\324\251\034:y\244\214\272\264w\014\272\366\026 \270-\300P;j\267\230<\310\031\272<\333\242J9l\370\n\270\251\350\022;\013\02089\031M\360\271P4\341\271W?\273\273a\245\030;Z\261\3319\350O\200\2707A\3579s\020b\270s\2046\270\033u@9\216\010\222\273\354B\0248d\377~:&=\317:\254\016\335\270\2425\240\272?&\3668Y]\003\273\2730\3539j\242\007\272[\223s\270\365\36258Y.\0279\302\262\263\272\251M\336\270\211\244\2569cf\304\271\277>\001\272<u\2656\320\232\2518J\325\267\273\327u\3728\263\334\001;C\340\032\2717o@:{\336\201:\375F%\272T\2432\270\350M\3559SFt;\251\334\211\272\026bc\271\'\313\020;\357,\000\270L\367\037\271\234\322\3757b\363\\\270^\026\'<9gY8\334\254\321\270x\336\010\272\253\342j\273\245o-\273\3065-9\367E\264;\305t\374;\"*-9E\014\321;\340\026\254:\323@\235\273\332k\017:\226q\3707\332@\216;\232\334\3758\020\336\036\271iM\262:\014.\310\273\260\234\246\271T{\305\271\355\206\233\270\260\311$\273\322\250\243\274\372\n7\274\260-\005\274\354D\343;\377\214(\274\320\345\240\274f\361\352<\332\272g\274\376\214\261\274t\325 \274\304\363\210<\241\231k\276\352\335\364;\311\344(\274\365\254\027\274L\365\236\274\3542\224;\n\366\032\274iG\217\275z\271\271\274m\2621\274\032\000i\274\272\227\211\274r\214\214<\323\273&\274\357$\345\275D\026/\274:\n\264\274\001\256\264\274\024J\262\274S\246C\274\337j\256\273\374\375\332\274\232\277<\274\367\014\203\274\227\252|<\301\344V\274\210,\324\273\341\202\236\274}\247R\274\371\361\026=r\202\'\274$\267\351\273\367Y\246\274\343\375?<\357^\373<k\237E\274\247`[<\357\322\200:K\\F\274x\365\010\275\343\260\342<\020\226\320;r\362\231\274\246\2430\274\362\351\225<\255\276\376\273\362\254:\274\2348\002<\377\203\373\274\240\271\331\273\353kp\274\353\315\030\274\010\364k;\273\361\237<\221\037\036\273\260\310R\275\314\177$=}*=;\232\201\376<QH\310=\354\037\215;>\357(=\001\336K\272\362\200\335\273\326,\000\276A\213\215\274\363\274\341\273>V\253:Pb\264\274j\374Y<\326\375\013\274Eh\374\273\242\200H<\0303[;\346\025\034:T\3722<\263\303\300<\254-\201;\263I\324;\034\255\247:\215w\232<\202\031\205=\363m\210\2749\022\232\272\271M\r\274:\300\263\275\316\262o\274t\240\202<\313\256\020<\270J!<\332_P\274wQS<\n\253/\273F\026\037\274a\355\032:\2457\242<\257s3<\031\207\034=q\'\211\275\000\"><\251\372\317\275b\010A<\222\247\225\273Fw\325=\277\020\001\276\337\377_\275\222;\271\273\220-\223\273\003&\243</+\222<i\026X\274\014\240\200<\247\243\341<\3740\244\274DC\300<\214m|<\262 X<\352Zz\274\243wK\274\233jF\274c\323#<lB\032\274*\270\214\274\030ff\275\310\275@\274\254F\026\275RV\033\274\214Z;=2\t\222<\33549<\326G\031\274X\207\005\274\203/\201\274\246\301\332;\\\233L\274(o\224\275\234\023\224\274\360Wk\274\356 z\274\234\344W\274\370z|\274\260 \006\2741\036\020\274q\356\'\274i\375\216\274\350\272\034\274\213\034\206\274\215u\'\274\246\261\341\273\252\200\202=`0D\274\343\271R\274^Q\210=\365\353E\274\204z/\274yN\177\274~\231\035\274u\005\305<\347\205\010\274^\210\n\274~\336\201\274\014Y\272\274:tP\273\270\035&\274r\244T=\361bB=70#\274^y\333<\210%=<w\337o=*-w\274M\3101\274\313\n\275\274\232\271\270\273\212\211]\274\031\310I<\352W\364\273\255e\370<\263SY\274/\333\030\274\033\024\316;\364\303\321\274b\242\211\274\361i\211\274\nCx<\351\203r\274\233X\362\274\373\365u={\177\233\274\373)\237\274\215\315\202\274\264\276\207=\210\371}=\367\361\217\273GqN\274;\207f\274\007&\323\274\315\013\246\275\205\346m\274\274\360\236;\274\032\314\274k}\007\274\331\325\325\274\277`\233\274lt\013<)(H\274p\034z=,\'\264\274\244\273\327\274?\225/\274\333I\325\274\362\\\207\274\343\306\005\275\223_\211=\206\225\225\274\361t\222\274:\235}=\001\to\274\024\262c\274\302\017\306\274\316\3416\274|\347$=\265\241W\274\255\255U\274|\243\267\274sS\224<g\021\242<l\225\201\274\351\304\206=\353v\033=\354ic\274I\037\025\274)\"\203=\213\\\232=\325\234\255\274\347\237\205\2748o\034=`\320\240\273\317wn\274\274\372\'\273\314V\370\273\371\347\222<\270\326\357\274%\271K\274~\035\331\274\321Z\246\274}\243\035\274\223\272\302\273\347q\315;W\351&\274Q\251\236\274\372\373@<]\222{\274;w\260\274c\006\"\274\027\205I=a\344\275\275\257\357\377;/\332)\274\362.\023\274VD\244\274\007)\216;\245\017\r\274\333\216\024\274\377\272\270\274\024\202\010\274N\333d\274]~\216\274s\234\250<r\006\023\274\371d\366\274X\'6\274\252\315\257\274{\305\001\275,\202\261\274ZB=\274\021A\331\273\032\326R\275\357\275:\274H\361\201\274\004f\373<\364\234`\274Cm\276\273\304\323\235\274N\252:\274o\357!=\346\325\025\274\267\307\314\273\000\255\247\274\374q_<>\225\340<\321\325[\274\212\242U<\276\254f<\227\266E\274\\\254\344\274S\346:=\033\273\007>\2050\235\274&\237<\274\312\272\202<\330\002\306\273\177\0017\274\303u\375;\265i\363\274<-\206\272\213\237f\274]\237\365\273\025\rx;\375\006\270<\242w\001\273\214BJ\275\362\220\342<t\240\210;qW\007=K\270\335=GS\244\271r\355C<\013\227\227;Q\370\023<)M.>g\274x\274\267q \274I;E;\247\301\241\274\373\021D<>\020\367\272\023\200\240=w\200K<\013c\253\274\023V\374:\332\306\016<\031,\001\275|\026\177\271\305J\320\275(^\246\272\350\r\233<h94\276\341\370\215\2745,X\273WG(\274\327\341\017\275\357\377\033\275v!\220;1\274\270\274\244aF\274\234\321x\274\260\352N<\036\267h9\253\355\027>\333\332\340\272\323\373\214\273\216\323\002<\326\311\257\274H\033\016=\224\353H=\360\021]\276j9\212\274\246@\010;Z\220t\275\303\000\014\276\305\244!\276e\242\205\273\244\223\r\273g\365\363= @\252\273\252\\\216\274\0169\200<\243q\251=\315M\243=\345;\267<\n\036\275\274~\306_<\347n{\274\357\0315\274\340\2326\274\250\277\027<\374\357\035\274\202\226\212\274N/\025\275\233\233Q\274\227\317,\275D\270\037\274\272\202t=\t6%\2751;7<\305\334!\274\3164\002\274\220\310\206\2741\277\316;\375\340>\274\"\277x\274\333\r\223\274\262\206\023\274\226\331u\274\253\375V\274\247G\035\275\361\305\365\273z@\327=[\375.\274\221$\214\274\341\036t<\235=\205\274b\262\035\274=\366+\274A\321|=.\325I\274d\006M\274$\"W=\335;Q\274P\260#\274\032\004\200\274\341\314\017\274\377\243m<a\271\001\2742\210\357\273\260\020\201\2747b\257\274ix\316<\203\2720\274Q\363\230=\007| =\236\\)\274/:\330<\203!\010=,\357Z=U\002y\274\332\021,\274\005\266%\274tw\257\273S!]\2742\306E<\300fR\274\004k\202\274\214\230Q\274#\003\316\273\025\205\325;\031w\326\274\272Gz\274.\262R\275f\360X\274E\006h\274\017e\356\274?\314_=\337\265\245\274\323<\300\274\227\244}\274Vb\223=Vw\\=%\375u\275\350GE\274>\tG\274\252\234\313\274\273\313\210\275\002z[\274a\337\203<\n\357\321\274\350\377\035\274\322J\210\274s\020\237\274\374C|;\340\205.\274\037v\207=\rO\224\274\346\026\334\274\210F\n\274`(\327\274&8{\274\304?\022\2750\322v=\022`\231\274\300\250\221\274\276\024u=\251\257v\2740yG\274\205\213\300\274\306!\'\274\2430 =\267\370/\274cX<\274#\020\272\274C\201\236<\000\010\314<\220\310\232\274\016ve=\345b\031=\374RZ\274\301\310&=\317\302`=\234\317n=\316\256\260\274\367\215\213\274s\326\020=\016\275\221\273\204\233\360\274J\004\271\272\037S\373\274F\241f\273&B\346\274\246{\014\274Z\324m\275P\250\3449\206\210\0209\020!\365\272cp\221:l\217=:\016-\3229pf)\273\3713\223:Fk\221\273\332\351m9\tci\273$8\203\275\032\245f\272m\021\223:0\243\3119p\253;\272\246>z:d\\G\272\212\356\r\274\02657;\3527\300:\362\n]\271<\0034\2727\201\263:U\332\032\271\256\201\321\275j,\001\271\243\315\322\272\020_z;\376?\002:\350\005*\271a\327\026\273t\246\200;T`@;\010\026H9\340N@>\0345\3058\006\360\353\272\355\003:\272\024\326\255\270Q\004\340:\256\245\2238\026\022\006\272\205Z\2648\344\375V\274AI\340\273\200\212\256:\221X\340\271Cm\002;\314T)9\2571\'\275\320\267 <\224\220|<S\2040\272\266{S\271\275\2617\272(\312L\272\030\306\373\271\345\261\255\271\026<\320:N\030\211\273\252/z\272\026\375\2567 <\314\267\270TR9\007\235\273\273\217\271\024<,!\203:\004&r;8\320\257\271PjH\275\234T\362;\027\341\225;\r\227\251:\373\371\250\276\256\0260\274\234\323\333\272\330o\010\274\244X\030\274\250H\"9]\036\r:\256\342\227;\215\376X<}f\r\273Q\001,\274>\275\021\273%\307#\273-\242\235=h\034\234\273z\006\024?W\210\024;z\3164\272\3621+\273\331\372\027\272\247\314\201\273F\236\222:\244\302\235\276\271k\310\272\030\214\'<\242[\013\276\207\275\274;\360\222\002\274b4\022:\353\206w\273\013\001\307=\206\024\245:\247\375\272\273\371\264\230\272\304\021\251=\325\315k\275\016\277\323:\2203D=@\207>\273\341~ \274N-\342\275t\232\267\275\357\210\336=\265\205X;\271\200\2529\007i\312\271\215\211\n\273(Gk\273\031\214\256\270 \213\250\273y<\342\273\316\261\031\272\'su\272\211\314\370\271b\\M9\244\355\3158\224\354\005\273#\0329;\242\355!:\244f49Y\232\234\275#\204s:\021\347\327\272[\305p9\254P\035\275\275\230\241<\177\274S:\356\235\252:\020<\2479\302 \016\272\260\t}:\035n?\272+%\317\273\nY\t;\2020\247:\355\227&\272\351=\004\272llt:\306\325\206\2707{\215\275\006S\200\271b\217\236\272\254C);#\251\2179\3175\326\270?\031\317\272u\350\035\274W\320\010;6n\2049\223z\362;\316`P\271\223\003\213\272\350O\356\271\003s\21095\345\203:@dP5]\303\305\271\234S\3729-\236\214\274\236m\027\274\306\202t:\237\202V:\365\270\2379d\322;9\216\310\026\275\200a\252\274nud\275\014\227\313\271\372I`\271\310X\000\273\253\266.\272?\330\2779\001Pp:d\255\021:\350\374\266\273\023!9\272\0225l8K\322!\272\375\207\3168\322\351\370\2706\3376\273\356_\244<\006x):\245P\t:9]p<\235\351\3779\376w\233\273\376\002\3759\340J\230\2661\347\273;\272\235x<\014#&;\237GH8\2519\010\270H\"\361;k\036\r\272\"?u\273\232\010N:O\375\334:_\373 \271\217\316\201\272\014\210\325<N\216\210\271\363\035\313\273\026y\205\271\272\360\317\272\202\002z;\342\200Q:\332V\2317.\364\271\273\247k\300\272(\372\027;C#\3069F\250=<\027A\3239\306\"\230\271\272|\217\271\224p\2409\226T\014<\223\260\320\270X\225K\271\220\\\261:\235?9\274\034\240!\273n\226\366:K@M<I}7<\321\271\024:\366:\001\275Bb\362;P<I\274\237\247B\272.U%\272\267\017\'\274\200(\340\271\276\221t:\267\007`<H\301\207:\336B\027\275\200\242\266\272\216F\3147\027\022\227\273.\2426\275\273\247\304\274\200\341\214\274/\274\203<0i\341\274c$F\275H\201\314=\275\343\037\275\253S\334\274p\273\341\2743@\201=\211SM\276\277lz<\277\374\333\2747\244\356\274\371\254)\275v\2738<\221\023\252\274\316\n\010\2769[S\275B3\251\274\010\254\004\275\301\326!\275s\272-=,\025\362\274\302\216\014\276\334 \362\274\216\260L\275;[\223\275z\321L\275$\224\376\274\207.?\274>\330\205=K\230\020\275\030>=\275)~x<s\254\004\275\260\230V\274\222~1\275J\251\017\275\036\016\235=\002\267\003\275\240\364\317\274S\0329\275\032\347\000=\202q^<\213\254\030\275\211*\010=\245\025\232;\237i\023\275`\250\223\275\243\363?=\333\341\001=\326\222*\275\037\"\307\274\036S[=\233\265\373\274\325\341\340\274d\004\220<\227\343\320\274\215`z\272\254\023.\275\241\034\326\274\2079\013<\365L\322<\212\"\303\273w\304\347\275\004\303\220;\201\200\177;\366\2655=\276i\002>\3519+<\350\324+=\000l\324\273t\3104\275\361(\255\275\235=\r\275A\t\324\273j\317\261\2735h0\275\326\333\t=\004R\371;*\336R\273U\235a<\212b\035=\356\322\300\273\204\035H\274\375d\030=\305-\000<\245\375<\275\304\230\215;\211\204\002=y5\276=\272b\350\274\033i1;\010\273\224\274\327s\004=D\331\322\272\271\372\306<\346\"`;\261\346\030={\203\200\275\221D\001=}\216];\020\250k=\270\373\303\272t\020U\275\220\013\242<<\010 <\007\010\340\275]\247z\273&\206\262\275\317e\255\275\253\013q\273+^\365\274\334\227\213\273%\237\330<\272M\002\274\006#\021<\2568W\275\235$\233=\021\276S\274f\232\025=\250\333\361\275\"|\274={l(=\317\340O=\016A\005=V?\034\275b\277\337\274\324\204)\274\271h\243<\024J\313\274\3142<\275j\321\300;/A\002\275\236>\235\275C\305\324\274\036eX\274\345>&>Z\231\310<\030\234\302\274\344\024\316\274\345\353\022\275Y\037\207<\314\373\317\274\214l\323\275X@/\275\347\210\225\274\236\371\007\275\t\205\r\275\232W\010<\214;\304\274\270\021\310=\353g\341\274_x%\275I\200\360<1W!\275\267f\376\274H\231\025\274c\352\347=\331$\031\275\'\314\365\274\217\010>>\024E\361\274Og\236\274\361O\023\275>2\314\274E5\311=\333\347\317\2746\215\353\274g*\036\275Oc.\275JdT;\347\217\n\275\373t\355<\014\211\253=YV\344\274\204\204\370<p[]\275\372K\037=z[\020\275\316\327\303\274+\363\252\274V\345\337\274~\202\376\274\023\002\377<p\321\002=%V\'\275\317\364*\275Q!\250\274kEf<\215\232e\275h\'\t\275\334\'\242\274EV\334\274(\244\035\275\340\334\211\275#\\\376=S\0067\275\002\335\031\274\347\260B\275\265=\302=\304\321\307=\330k\244\275\211\310\004\275\231\004\340\274\350\352B\275\t5\264\275\375y\001\275\272d\252<\356TL\275\324\216\300\273\177\341O\275\006\0034\275\266\214\261<w\'\013\275\272\336\301=\354\016\361\274!r`\275\324\273\373\273\013rl\275\241\004-\275{\251,\275\261\213\010>\000\036O\275\':*\275\320\271\344=\2354\023\275D`\374\274\177\327`\275\021(\002\275\270+\226=\210\374,\275\322\177\003\275wZN\275\177\331\372<\246\027{=\207\205o\275UO\267=>\261s=\305\322*\275\236\032m:\256\177\312=H\334\364<\3719<\275\376\203\201\275\016\306\307=d?\253\274P\332\236\275\335K\337<jN\266<Rh\245<\025\241\200\275\2560\010\275A\353\326\275\200}\217\272\201)q\271 t\352\272\200\373\2648\225R\022\271\2125\215\271.\331\r\275\232\306\3269\260\010\2759\031\021\231\271\004O\237=0\332\346>\267\236V\272\247\306\212\272\203\302\n\271\272j\0269\005\013S\272\340\242W\272\035p\373=\224h\031\273\276\206\031:\215d\265:-\374K9Cbz<)I&\271Wr\304>\033\214X\271\207\013\216:yE\032\274\242\337\2049(\224\237\271X\211\230\272$\226\273\2757\357w:\r\323\005:@-\031=\227}\246\270V\250\247\272\355\314\0309,C\314\271\177\327(<\013\227\206\270\205\03049\\)\272\272\270\215\214\273k^\272<|\374\200:\274\243\336;\031\031Y<\260\177\0079\271\2356<\207:\204=\306\035f\275\245\337C:C\251\242\271m^G\272\367##:\"\374\2379\222\320[\270\335\r\215\274\230K\203:\315\300\275\270\007s\201\272@\246\3708\322\210\3569\007\3039\273\254\035\263;\356:\204:\020\2455\273\021\226\n;\262\243\267=\336[5;\333\272\201\275\316\362\270\273\224\0010>\303\226\003>\\\020\366\271`\261\220;\263/\264\273\017\313/9\020e\034\272E\352\300;\300q?\276\241\252\033\273\310O\223\274J\216(\273\'j\241\272r\243\341\275\266\020\363:\351-\006?\264\366\346;>7\212:\023\277\376;o\313L:\235b\035\274H%5;\265O\376\276\355}\307\2740\026\316;\250W\017>\tc\377;\223q\014\272%\330\324\271\324\315I\273Fh\304>\270\224\232;c\031\331:8\243\220\272z\273\230\275\022J\240=\037\002\211<\2411+\275MG\245=\243\351X\273uI7\276L\2544>\274\261O\276T\022q\273\007\022\335\272\257\324*>YvJ\274\207\251\326\273\226\2251:\354G\311<b\202\200=}\222\2729\247\014\210;\025\034i\272\265s.\272o\0337\271\323M\320\272v\336I\272\243\3418\270\020W\"\271\177\257Z\275\220r\2029\266\211I\274\364~\205\271\263\210\226\274\014\201\206=<>\0079\364\')\272h0\001\270\3419\2069\300\t\221\272n\267N\272\374\276R=\210\247\255\272\363\014\311\270T6\305:\030\360\\9\020x\257\274\264\226I\271r*\366<\220\270B\271\327\203\217:\3319~\273\303\024\32198eV\271&^\t\273\025z\031<\026X\0379\007f\2409p\301\203<\235\243\274\270\302\'2\2736,\3638Z\201\257\271\317N\254\271\016\366\3568I\314B9\352I\372\271\317&\021\274F\202[<\306\331\205:$=@<}\336\267:\031k\0049!\213j<\372\273\010>\236U7\275,\300\000:\222\023\204\271\307\316?\273\253\273\3769\345i\002:\262R\005\272\tzo\274\304\027X:Q\263\210\267y6\260\271I\244n\272A\311\215\272\030\020\263\271\241\036\007\274\257\367\001\275o\272\217\272\3721l\271\366\r\346\273}-\2429pK\251:\003\343\300\271.f@<7\246T<\376\322N\274\234\246\315\272yV\240\271\366P\324\272N\323\320\273R>\200\272\237\261%=r{\240\273\\\252\2739\302\221\003\273(V\2319\224\206\n=D\252\357\271\226Z\005<\2724\327\270\306\034\010\273\301{\376\272\210\250^86\232\t\272%\021L\274c]\255:\226\216J\270\270\201\2419\220\266\'<\301\201\224\270\251\203`\273\020\363\262\272\222q\306\271N?l<\321\245\201\271O4c\271\223\372\246\272\311\212\362\273\316\333\361: \212\215\2724\343&\274\313\3615\274\341F5\271\036\372\274;\013\257\201<%K\'\273_I\025:\343a\215\272\r\3570;\355\360R:\235\376*\272\263|t\274?y\005\275\030$1\275\357?Q:\222\277q\272#\375\326\274\323\001\024\2732\\\256\272\037\226\\\273o\226\365:\222\302\261\272\301\300\264\272\006\363\376\273\206\263\212\271V|\261\273\211s\322\272S\325\"\275\227=\004\276o\221\304:\2008\252\272\020\220\200\272w\266\232\272\270\023\2727\223Mx\272\275\231\231\274\006!\357\272\306\317\211\272\024vV:x~l\272\217\327\001<}z\355\272\277\237\266\2754C\363\272:N\014\273\216\316\375\273\003\300\215\272(\311\317\272*\375\314;\366\242\022>o\2078:)\240\356\272\303\274\204<n\314\251\272\211=\311\272:\367\24387\367\327\272m\n\222;m\360\203\272\377\340K\272\362\245q\271E\250\271\273\010:\352\274\200;\254:\362\201\024\274\203\033\301\274\354^\217\2721\354\256\274\277Yn<\002\007\027\276_\351T\273\251\212o\272O\345]<\241\006!;d\214\211\270f\177\n;\2240k\273\255A\247\273\243\035\225\272\240\005\013\271]\036\343:t\351o;=\236\353\273\2173v<.-\212;V\236d;(\334\213;\274\037R>Vp\n<P?i=\350TJ;\353l\355\276\363\\H=\222\034\304\273\036\263\351\273\236\321\342\273\222\t&\273\313\330\252:8\315z;\300\0252\275f\220F;\234\\\271\2747\303\235:579;\245\210\207\274-/Y;\314\"\341>\204u\021;)H\363:\031\237+=\321C\017\273RG\267\273\'\260\235\274o>\260\276\240#\200\274\342\362@\272\336J\035\2760\036\324;\276x\270;O\206\261\271\334f\250\273\301|\221>\275\337\321\271\006\236\006<\360\211{;\226\264\224=\352\224\006\276C\267\203;\312\237\023>o\303*\276\360\025^\274\240\372\252\276\212r\234\275\351\223\203>\353\237\220:\231hM\273\275}\215\275B\3372<mZQ\274\333\355\224;J\221\244=b\262\340\275)>\264:\260\236\035<\230\016C;\035\366\264\272\230\254\254\272#IE\273\221\252j;\014\263\204\272\315nj\272\316\265\320\275C\353\006\272\357\023~\2726\340\271\272\322\235\246=dG\252\274\205\363v;@\r\212\272\275q`\272\224\250k\272\224=\3378,?w\272\341\203Q::\361\337\272\016h\245\272\025\332\301:\030\372\367\271{\227\230\272\363\214\246\272\337\303\262\275\316\210\324\272\000\212\315\272\310\202W\273\010}P\272\226\032\240\272Q\365\'<\200J\2018\231\341\0269J\321i\272\303\343\023=\221$\324\272\037\250\306\272\242=\31790\230\312\2720\034\303;\305\001z\272JX\202\272\320\215\003\266z\232 \274X\244\003\273\205\311\207:\3643\232\274\364\365\263<0\215\006\272|l\032\274\014\021\247=E\261\357=CS\031\273\266\275Q\272{\232\207<\307\327b;\022\001v\272\213)\212;%@:9A\313t\273\0022i\272\006\246\320\270\027\2116;\226\332\"\273\317\360O\273K\362\002\274\332\010v=nV\003\273\273\004\024\273|G\236<|\037\254\270\031\212\262\273\034\350\002\273M|><}2\227<\271C\347<\263\204\317\272\301\257\223\272\310\205\360\272C\017A<\233\000\251\272\233\177\002\273Q\2639\2737\240^\272v\204=\273\246\253\234\272\277\216s<+\331\033\273\272M\';\266\220\016\273\271\337x\273\302\345\353\272\335\277m\272\323\037\030\273\332D$<\362\221\243<\301\204@;v\336\t\273\t\213\276<\334a\251\272\240\002\307\272\236v\005\273\234\360\332\2720lW<\227\270\214\272\311\234c\272q\252C\270\371CT\273\327`\217\273Z\017%;I\033\217<^J\211=9\257\306\272 \001\337\273\273\261+=\023\375\001=\017\230s\273^\316\311\272\355\211@<\372Sa;\353{\203:\302\000\276<k\305\236\274$O\361:\236F\016\273M\022Y\271h\233\261\274?D\214\273\207\334\321\272.\256\263\272\353\337\353:\207\261\027\273\030]\253\273\253\374\330;\307\347\201\273\343\276\275\273>\r\256\272\367\323#\273v\240E\276\364\231\006;l\031\"\273\230k\r\273\236\0269\273~\27059\343\205\313\272w\223\323\274T\232\307\273Q\266\230\272\330\024\350:\2061\205\2734\007\256;8\370\370\272an:\276\207\325\021\273\375\346x\273\227\256\214\273\026\212\226\273\276\200\006\273\360 \';U\312\236=G\021=\273\257\265P\273\034m\237\273\350\006d\273\206\234W\272\370\3273\272>F*\273^E\021<\346\014\t\273\275\035\270\272\250\307\231\273\356P\237\271\003\277><\n+7\273mc0\272\232I[\273\374J\323\272\032\374\205\274\357<|<\252\324\356\2748\000\241\273v\001\031\273\027\267\334;hE\3668\372\270\033\273\"~\336:\374\266\266;Mn\024;\372}\221\273\"\367\030\272\016\327B\2719\340j;7\355[\273kZ\016=q\263n;\253\354=;\217 \232;\212;\027>\352#H\273\212\004M<\233K\234;\322\344Z<J\034\361<=\367\247\273_W\345\273\202\347\316:\236 \355\272\201\2313;\022)\343;\253\242\035=\320\3276\272\256m\200\274\357\332=\273f\275\217:p\"b=}a$:\245\200\023=\350Bu\273\024\027P\272\232C\213<\266)\234:\021\002\314\272h\326B\274\024\365\010;\210\361\306\273\213\364\261\273\307\372\023\276\223\005w\273\243\216\203<\275z*\273\247\204\226:\264]\332\274p-R\273;PS;\3331\202\272\237\232\210<\263\204k\275\037Qr76\202F;y\211\326\275Y\256A\272\260\311\356\273\003\211\325\275-\305\005=\364\201\235:\320\2624;B\343\033\273G\334\361;\300H\255\272\002\343|;)\307\022=\342\274\261\275\241\266\000\272\367\273\261<x\030l;\036\0343\273\234\316\325\272]H3\273\300oP;\3120\017\273+\211V\273\353\021\336\274t\267`\273\003{N\273\364S\261\272?\256\241=\306FK\275\265\375\237;k\036\"\273V\227\003\273aN\032\273\003\n\213:\023\253\337\2720\351\177\274\240\317\227\273y\311\261\272\323#\366:\001\242B\273\344\261\234\274\325\214\336\272\237\270\366\274\360?$\2735m1\273\313\226I\273B\321<\273\343r\314\272u\315\033;tL\023<\2763?\273\\\220\026\273_\365)=\275~I\273.MF\272\306\251W\272G\247\030\273\376r\324<\'u\001\273\323\342\260\272j\221H\273\024e`\273h{\203<\025U\027\273\270\275\303:z\266\036<A\0378\272:\302\302\271H\t\350<\347\022Q=I8l\273\"\360\n\273l\007\347;l\004\2149\312Y=\273\362\260g;\215\206\234;ZF\306:\t\352o\2737\246\036\272S\025\270:Q\202\310\273?|9\273\254\275\310\273\363\256P<\270\0079\273SV\001\274\273\"\234<\223>\221\273\216A\336\273\333\212=\273w\322Y<{\025N<{\235G<4@+\273^\213\024\273\235t\310\2735d ;\252\252\021\273\253W.\273\337\023\323\273Y\035\257\272\235\035\217\273\212\003\224\273wC\370\273\2011\021\273j\021\314;\345\317\200\273\263\365\275\273\247\177\214\272\"\251\264\273\351B7\273\327o0\273\010u\241<r\365\201\273\366\032R\273\241\341\207<X_u\273H>\354\272`\335\303\273\362\266)\273\376\0278;\345\301\014\273H\342\305\272l\017\252\273\260\215\363:c\001\002<:&T\27316Z<\350\360\025=&a.\273\327\3739\272\335\330\253<6\350\223<\301G\264\273NJP\273Iy\331;s\335\006:\201\\|\273F\371\307<\006\330\035\273\267\370a<\020\246\304\273\375\037.\272m$V\274\263\366\0212f\034\203\257\273\'\212\260\246\356.2;\373\2760\002%d1\245J\0072Z\261p0\355\305\0132\324\251\262\260\334\020\312\261\214H/3\t\206B0\237\250\2061\0369\203\256\342/-2\344FT1\342\027h1\004\000t\2620\216\3421\255p!1\371\034\347\260\333W\376\260Z<\3241H\323\0021\250\306\246\263\213\300<\260\214\355\2061x]\2651C\371\0162Vl\343/\234t\0313\322?;\263\020\305\355/\344e{\260\202{?3\036\037k/\252\252\3021\231\360y1\030\277\022/\370=\014/\2322I/\330\207\0261~^\2751X\235\3222Q\203\0013\204\216\n3\334V%\262\255v\2301y\222\2050\024\203\236\261\300e\2230\310\33352\330\"I1\300\006Z\256\306&c3k\006P2\037t61\010=*2\324\333\311\262\2573\2622\006\n\3641\344\341G0\254\300\0051\363K\3631\302D-2\230\356\333\260#Rr2RT\\2\367\230\003\265\374\367\0245\357t\2072\017\356\225\262\342\231[\262\304x,4\260\354D\260\3065\307\261{\341\375\262\274\024 \261\333\340%\262Z\023A2\022\016\242\262\3404\0362xd\3441\035\251\217\262X\256V2\206\250f2l\235\314\264\375%\3562\014\273\370\264\013\315\2102\366\222\n2\354\034\263\262\253\230\017\262C\"\\2^\034\334\263\304\333\2723Nk\322\262\265Gq25\303Z4RG\2352\000<U3\332.f2#\212\302\261\371x\0064%\000a1\230n\2072H\317P2\366\301\3233\372\007.3Q?\27624\343\347\264\267\0020\264\312Y\360\261\340\201\2542\031\226\370\263$\210\356\262N\265\344\262\2008\026\256:9\2354\332YX3@H\346\262W{\02730+W\262\354\337\326\263\365\342\3501\026\323b16i\3331\0307\3371\260ED.\030R`.\204\035\2612y\231\2650\n6\0322=\273i3\267\016\0330CI\2211(\273\013\257D\345\2751J\2179\263\2445b1m\005\3131! \001\257\311\000 2d?\3751\024131(\221\3360~\002\0361\264\347\2071\234\376\032\261t\026\3741\004+938m\3700|\34353\350Q\365/t\246\3551p~\3500\214\353\2721p\217\257\255\242\272l2\033\261\215\262\334\213\0231,=\244\257\226\251\024\262\366\023\2171\236\25781\332D\3271|\212o/(\0100\264\000\235\221\253\3433 1\330 \2201A\234\3152\375\241\0143.\304\3441=\t\263\262\314\265\3210\362\232@/\007\234\3312\240\204\237\261~\\\304\262\036#\3740\212\365\021.\272\230/4/\335_2nE\3221A)\2702P\227\3200\274\245\0053\361\'\3241\324Xe0]\000o1p=\3651\300\r\247\260<\227\351\261o\235*4P\317\2720\217#\2771\333o\0023\022\362\3560\240\031\3641\302\335\013\263:\000\3432M\342\0311\274\230!3:\340\3411\260\024\216\257\023N[2|)\2662.`\0031\320\006h1y7W17](1\220$n\261\347\304\2051\017\255\0013J\220\2431\267\007]2LX\240/\322\270\0172H\215\2571`\255\0062\260-\0360\271\177(3\024y\0013v\016\2451D_\030\260\304\267\0253ih\2120AV\0260\317;+2\214\222\241.&2\3253\250q\323.\000\03211\003\315\3151&D\0133\022\251\3622\200X82^\177\022\262\340\354\2073K\34781\336\255\3020\333\226\0243\266\367\0353\220p<\261\272\023\377-\302[\0253\036(\2362)\360H2\010\310?4\352\021o3\340M\027\262\224zX2Z\310i0\020\352\0322\337\347.\273\362\314\336\272\177:p\272\227\214\271:k\032\313\272uaS\273\306\310\310\273\220IY\273\236\003\247\273:\263\243\272\360SE<\026\371*\276\305N-:\214\231\003\273\253\252\352\272V\013Y\272\372\225s9\177}\345\272#h}\273=,\217\273\025\324\211\272\037r\264:M\002`\273\016E\372:\000\325\316\272\007\260\334\273\276\341\352\272\264jV\273\035\020~\273I]S\273\200Z\247\272p\000\033\273\216/\227<\005\001\267\272 CO\273\335n\247<>\2142\273`R\251\272\310\361\246\271R\350\r\273[\022\n<\312\013\353\272\n\224]\272D\020e\273\244\347)9\037\016\213<T1\262\2727h\347\271@9\213\272\240\204\246\272\246*h\274\247D\375<\214\017\337<\376\335|\273\020z\372\272\342\355\006;\372R`\272\354\210\307\2723\360\211:\267\301\017\274\206\207\007:B\2165\273\375\366A\272\353\353\031\272\242~\246;N\323:\273=P&<\037\307\257;\243\330\324:\321\251\264;%b\t\274\325\366\036\273\222\\\003=2\331,;\3775\213=\222\357\263\275jFk\273i\247\204\273\334Y\303:e\357b:\375\327\377:W\203\016\274\350\271Y=\362\256\303:K\303\201\274y\332\232\273QX\t:]\017\213\274\353\360\003\273d2s=3!4\273dM-\271\027f\346\275\262\026c\271\352-\321\272{U\021\272e%\327\273i\254\322\273z\350\010\273t\\8\275\007_\366\271\376\263\200\274\325\300\350\272\'\272\303:\303\300(=\205h\010\273\2141\364\272<X\0379<V\007\275O\333\236\275\262\245\343;\360\336\002\276\027\220\247<\332\013w:!\316E=\241H\244\275(\233E\275\337\335\264\272 \210\240\272\2235\204=\231f\223\273\301f\317\273zS$;\301|<<\302\341\014=]q\2169\"\324\361\274a\212H;_C\006\273\005e\337\272\2138\n\273Q(\014;\244g\263\272{C\022\273K\020\257\275(\237>\273\254\272\315\273\344M\203\272F\270\301=G\013>\275e\233<;:\357\346\272\260\006\336\272\000-\231\272\302\326H:|\265\002\273\330\320\274\273\364)X\273\353$\245\272O:z:\373O\033\273\252~\n\275\354\232\271\272\364\201j<\255\032\007\273\325~\035\273\250R\005\273a\240\006\273`\347G\272\271i\204\273\225\221\030<\356\032\334\272u\266\027\273G\365\007=\277\302.\273O5\320\272\343\264\200\272`\353\361\272}\342\224<!\354\337\272W8y\272\321\217#\273\300\023\006\273\345\345\302<\240\225\231\272\266%\032<\227\020<<\370i(\272p\311%;K\215A=O\245\221<\325\253>\273\227\331\341\272b\036\374\273&\304\035\272\005\271\022\273E\000\367:|\245\001\274dQU;V(\014\273\327\335+\272\221\247.:\261/\201\273\213\2160\273{\310\363\273\265\227\255;6S\017\273\273}\246\273\314>\020<2\253p\273*l\334\273\254\214\021\273\207\200\215<\3447,<i)f\273\'\'\021\273\315\001\004\273|c\231\273\265\3758\274{\303)\273\304\275o:\373\223\215\273k9\252\272\0069m\273\3551p\273P[S;(,\362\272\245]r<\216zY\273\024 \233\273\226-\334\272\305x\210\273\337\236\327\2720K\212\274 \210r<\305\314\030\273\010T>\273T\004b<\276\261N\273\307|,